malatya<pad>	0
<unk>	0
<s>	0
</s>	0
<sep>	0
<cls>	0
<mask>	0
<0x00>	0
<0x01>	0
<0x02>	0
<0x03>	0
<0x04>	0
<0x05>	0
<0x06>	0
<0x07>	0
<0x08>	0
<0x09>	0
<0x0A>	0
<0x0B>	0
<0x0C>	0
<0x0D>	0
<0x0E>	0
<0x0F>	0
<0x10>	0
<0x11>	0
<0x12>	0
<0x13>	0
<0x14>	0
<0x15>	0
<0x16>	0
<0x17>	0
<0x18>	0
<0x19>	0
<0x1A>	0
<0x1B>	0
<0x1C>	0
<0x1D>	0
<0x1E>	0
<0x1F>	0
<0x20>	0
<0x21>	0
<0x22>	0
<0x23>	0
<0x24>	0
<0x25>	0
<0x26>	0
<0x27>	0
<0x28>	0
<0x29>	0
<0x2A>	0
<0x2B>	0
<0x2C>	0
<0x2D>	0
<0x2E>	0
<0x2F>	0
<0x30>	0
<0x31>	0
<0x32>	0
<0x33>	0
<0x34>	0
<0x35>	0
<0x36>	0
<0x37>	0
<0x38>	0
<0x39>	0
<0x3A>	0
<0x3B>	0
<0x3C>	0
<0x3D>	0
<0x3E>	0
<0x3F>	0
<0x40>	0
<0x41>	0
<0x42>	0
<0x43>	0
<0x44>	0
<0x45>	0
<0x46>	0
<0x47>	0
<0x48>	0
<0x49>	0
<0x4A>	0
<0x4B>	0
<0x4C>	0
<0x4D>	0
<0x4E>	0
<0x4F>	0
<0x50>	0
<0x51>	0
<0x52>	0
<0x53>	0
<0x54>	0
<0x55>	0
<0x56>	0
<0x57>	0
<0x58>	0
<0x59>	0
<0x5A>	0
<0x5B>	0
<0x5C>	0
<0x5D>	0
<0x5E>	0
<0x5F>	0
<0x60>	0
<0x61>	0
<0x62>	0
<0x63>	0
<0x64>	0
<0x65>	0
<0x66>	0
<0x67>	0
<0x68>	0
<0x69>	0
<0x6A>	0
<0x6B>	0
<0x6C>	0
<0x6D>	0
<0x6E>	0
<0x6F>	0
<0x70>	0
<0x71>	0
<0x72>	0
<0x73>	0
<0x74>	0
<0x75>	0
<0x76>	0
<0x77>	0
<0x78>	0
<0x79>	0
<0x7A>	0
<0x7B>	0
<0x7C>	0
<0x7D>	0
<0x7E>	0
<0x7F>	0
<0x80>	0
<0x81>	0
<0x82>	0
<0x83>	0
<0x84>	0
<0x85>	0
<0x86>	0
<0x87>	0
<0x88>	0
<0x89>	0
<0x8A>	0
<0x8B>	0
<0x8C>	0
<0x8D>	0
<0x8E>	0
<0x8F>	0
<0x90>	0
<0x91>	0
<0x92>	0
<0x93>	0
<0x94>	0
<0x95>	0
<0x96>	0
<0x97>	0
<0x98>	0
<0x99>	0
<0x9A>	0
<0x9B>	0
<0x9C>	0
<0x9D>	0
<0x9E>	0
<0x9F>	0
<0xA0>	0
<0xA1>	0
<0xA2>	0
<0xA3>	0
<0xA4>	0
<0xA5>	0
<0xA6>	0
<0xA7>	0
<0xA8>	0
<0xA9>	0
<0xAA>	0
<0xAB>	0
<0xAC>	0
<0xAD>	0
<0xAE>	0
<0xAF>	0
<0xB0>	0
<0xB1>	0
<0xB2>	0
<0xB3>	0
<0xB4>	0
<0xB5>	0
<0xB6>	0
<0xB7>	0
<0xB8>	0
<0xB9>	0
<0xBA>	0
<0xBB>	0
<0xBC>	0
<0xBD>	0
<0xBE>	0
<0xBF>	0
<0xC0>	0
<0xC1>	0
<0xC2>	0
<0xC3>	0
<0xC4>	0
<0xC5>	0
<0xC6>	0
<0xC7>	0
<0xC8>	0
<0xC9>	0
<0xCA>	0
<0xCB>	0
<0xCC>	0
<0xCD>	0
<0xCE>	0
<0xCF>	0
<0xD0>	0
<0xD1>	0
<0xD2>	0
<0xD3>	0
<0xD4>	0
<0xD5>	0
<0xD6>	0
<0xD7>	0
<0xD8>	0
<0xD9>	0
<0xDA>	0
<0xDB>	0
<0xDC>	0
<0xDD>	0
<0xDE>	0
<0xDF>	0
<0xE0>	0
<0xE1>	0
<0xE2>	0
<0xE3>	0
<0xE4>	0
<0xE5>	0
<0xE6>	0
<0xE7>	0
<0xE8>	0
<0xE9>	0
<0xEA>	0
<0xEB>	0
<0xEC>	0
<0xED>	0
<0xEE>	0
<0xEF>	0
<0xF0>	0
<0xF1>	0
<0xF2>	0
<0xF3>	0
<0xF4>	0
<0xF5>	0
<0xF6>	0
<0xF7>	0
<0xF8>	0
<0xF9>	0
<0xFA>	0
<0xFB>	0
<0xFC>	0
<0xFD>	0
<0xFE>	0
<0xFF>	0
ar	-0
an	-1
er	-2
in	-3
en	-4
ın	-5
▁b	-6
il	-7
al	-8
ir	-9
▁k	-10
lar	-11
da	-12
de	-13
▁y	-14
▁s	-15
ak	-16
ol	-17
▁v	-18
on	-19
el	-20
as	-21
et	-22
▁g	-23
▁t	-24
ay	-25
▁A	-26
un	-27
▁ve	-28
es	-29
ler	-30
ik	-31
is	-32
at	-33
ek	-34
▁B	-35
or	-36
am	-37
▁K	-38
ır	-39
▁d	-40
▁S	-41
ıl	-42
ur	-43
▁M	-44
le	-45
iy	-46
▁bir	-47
▁T	-48
aş	-49
ad	-50
ul	-51
▁m	-52
im	-53
▁(	-54
▁D	-55
it	-56
ür	-57
▁ol	-58
em	-59
ında	-60
▁o	-61
▁h	-62
ış	-63
ed	-64
iş	-65
ün	-66
▁|	-67
▁f	-68
az	-69
▁ç	-70
▁H	-71
▁P	-72
lı	-73
▁il	-74
ap	-75
▁al	-76
ları	-77
▁G	-78
▁E	-79
lan	-80
li	-81
us	-82
▁İ	-83
ey	-84
▁C	-85
iz	-86
ya	-87
dan	-88
▁ö	-89
▁F	-90
inde	-91
▁p	-92
di	-93
ım	-94
ağ	-95
ah	-96
um	-97
▁de	-98
▁i	-99
▁Y	-100
ki	-101
ık	-102
ab	-103
ev	-104
üz	-105
▁R	-106
ut	-107
ro	-108
▁O	-109
leri	-110
ör	-111
▁L	-112
ası	-113
dı	-114
▁da	-115
esi	-116
du	-117
ac	-118
st	-119
ine	-120
ist	-121
af	-122
eri	-123
la	-124
ük	-125
den	-126
▁ş	-127
ti	-128
ilm	-129
ül	-130
▁N	-131
▁iç	-132
="	-133
oğ	-134
▁yıl	-135
om	-136
larak	-137
cu	-138
üm	-139
ini	-140
▁tar	-141
ok	-142
▁olarak	-143
tı	-144
av	-145
▁ar	-146
ını	-147
lu	-148
tir	-149
ig	-150
ından	-151
ez	-152
ıs	-153
te	-154
▁son	-155
▁yap	-156
▁ile	-157
ön	-158
▁-	-159
uş	-160
tır	-161
▁baş	-162
ic	-163
dır	-164
os	-165
▁"	-166
▁n	-167
▁an	-168
aç	-169
inin	-170
man	-171
▁r	-172
ter	-173
alar	-174
ına	-175
op	-176
dir	-177
ği	-178
▁c	-179
lik	-180
ğı	-181
isi	-182
▁kar	-183
eç	-184
mış	-185
▁gör	-186
▁için	-187
ce	-188
▁et	-189
ra	-190
bol	-191
iler	-192
eş	-193
uz	-194
ta	-195
lam	-196
mak	-197
▁J	-198
adı	-199
ürk	-200
len	-201
ih	-202
ayn	-203
▁V	-204
alı	-205
▁I	-206
▁ed	-207
ib	-208
ip	-209
ca	-210
üy	-211
ının	-212
up	-213
ma	-214
▁bu	-215
ız	-216
ark	-217
▁Türk	-218
▁olan	-219
▁An	-220
utbol	-221
ans	-222
iştir	-223
yun	-224
▁oldu	-225
▁W	-226
▁Ş	-227
yon	-228
he	-229
▁U	-230
ign	-231
▁in	-232
▁yer	-233
eler	-234
asında	-235
▁futbol	-236
ekt	-237
ec	-238
öl	-239
▁taraf	-240
▁z	-241
ers	-242
iye	-243
art	-244
anı	-245
id	-246
▁doğ	-247
▁yılında	-248
▁gel	-249
▁Al	-250
▁or	-251
üş	-252
▁bağ	-253
▁ön	-254
eh	-255
▁bul	-256
uy	-257
▁Bu	-258
let	-259
eb	-260
leş	-261
ha	-262
▁tarafından	-263
ot	-264
▁Ç	-265
aya	-266
▁en	-267
▁Ö	-268
▁kul	-269
▁Ar	-270
ça	-271
▁align	-272
ada	-273
lık	-274
▁kur	-275
iv	-276
ov	-277
tur	-278
),	-279
▁futbolcu	-280
aynak	-281
erk	-282
uk	-283
▁ik	-284
▁is	-285
ğu	-286
▁ver	-287
▁Am	-288
▁sonra	-289
eni	-290
ması	-291
mıştır	-292
▁kad	-293
nin	-294
ayı	-295
▁bulun	-296
▁bil	-297
sp	-298
tad	-299
re	-300
▁Bir	-301
ci	-302
▁kullan	-303
ub	-304
lem	-305
▁|-	-306
ların	-307
tan	-308
cı	-309
inden	-310
öy	-311
ilen	-312
nın	-313
▁tarih	-314
▁gö	-315
▁film	-316
▁ay	-317
ili	-318
unda	-319
ilir	-320
▁Kaynak	-321
yla	-322
ing	-323
▁yaz	-324
▁kon	-325
erik	-326
cak	-327
üç	-328
▁sür	-329
▁el	-330
▁yar	-331
tadır	-332
▁ilk	-333
▁Kaynakça	-334
▁dön	-335
▁sah	-336
ısı	-337
ch	-338
▁daha	-339
▁çık	-340
▁oyun	-341
▁üz	-342
▁tak	-343
▁böl	-344
▁kal	-345
ibi	-346
if	-347
cen	-348
▁geç	-349
▁ad	-350
men	-351
ayan	-352
ade	-353
üyük	-354
unu	-355
▁üzer	-356
ildi	-357
iyet	-358
ılan	-359
▁Amerik	-360
▁yön	-361
edir	-362
▁Ü	-363
▁yay	-364
daki	-365
center	-366
ne	-367
anlar	-368
span	-369
▁olm	-370
▁yaş	-371
ğer	-372
sel	-373
tr	-374
ede	-375
uştur	-376
iyle	-377
▁ger	-378
▁çal	-379
rı	-380
ken	-381
ef	-382
ag	-383
og	-384
▁on	-385
▁Fr	-386
laş	-387
▁arasında	-388
me	-389
ack	-390
▁Ay	-391
▁futbolcuları	-392
▁aç	-393
▁ken	-394
rup	-395
▁tek	-396
ep	-397
▁iş	-398
▁yüz	-399
iyon	-400
eden	-401
umlu	-402
▁gen	-403
ıldı	-404
maktadır	-405
der	-406
▁karş	-407
th	-408
▁l	-409
arı	-410
▁bel	-411
▁çalış	-412
üs	-413
ektedir	-414
▁İn	-415
▁top	-416
▁as	-417
▁at	-418
▁gibi	-419
ri	-420
▁bağlan	-421
avaş	-422
ladı	-423
▁kat	-424
aman	-425
und	-426
▁öl	-427
▁es	-428
▁gün	-429
▁ise	-430
ft	-431
▁dev	-432
▁Av	-433
oy	-434
üt	-435
tılar	-436
▁Z	-437
esinde	-438
▁takım	-439
▁sır	-440
▁çok	-441
ren	-442
dü	-443
lerin	-444
amp	-445
eye	-446
▁pro	-447
yle	-448
▁Kar	-449
eli	-450
met	-451
gil	-452
▁En	-453
eleri	-454
▁Dış	-455
ill	-456
lü	-457
▁doğumlu	-458
▁öz	-459
▁büyük	-460
arkı	-461
▁kadar	-462
tal	-463
▁Er	-464
▁veya	-465
unun	-466
col	-467
aları	-468
yan	-469
deki	-470
▁değ	-471
▁||	-472
dül	-473
öz	-474
asyon	-475
▁Türkiye	-476
▁var	-477
ob	-478
▁Ch	-479
ılı	-480
uç	-481
▁st	-482
▁ak	-483
miştir	-484
usu	-485
▁of	-486
liği	-487
▁yak	-488
istan	-489
▁say	-490
ram	-491
iyat	-492
imi	-493
▁Or	-494
▁uy	-495
▁The	-496
▁hal	-497
oz	-498
ivers	-499
▁İs	-500
▁uz	-501
uv	-502
dür	-503
▁!	-504
▁kaz	-505
left	-506
gi	-507
▁bağlantılar	-508
mek	-509
oj	-510
larında	-511
▁col	-512
▁par	-513
▁tan	-514
raf	-515
ster	-516
mas	-517
▁kurul	-518
▁ek	-519
od	-520
ran	-521
ion	-522
miş	-523
▁iki	-524
▁sahip	-525
▁colspan	-526
han	-527
eğ	-528
iversit	-529
est	-530
color	-531
lığı	-532
▁a	-533
çi	-534
gro	-535
ard	-536
back	-537
rıca	-538
▁seç	-539
▁ins	-540
▁Dev	-541
ünya	-542
tür	-543
stan	-544
ground	-545
arak	-546
ileri	-547
background	-548
inci	-549
iğer	-550
▁dönem	-551
ağı	-552
ow	-553
ia	-554
erkez	-555
atı	-556
▁yeni	-557
▁yük	-558
uh	-559
▁zaman	-560
▁yönet	-561
▁görev	-562
ellik	-563
yn	-564
▁birlik	-565
yıl	-566
larda	-567
iç	-568
dur	-569
▁bölg	-570
ten	-571
▁düş	-572
ket	-573
ara	-574
▁w	-575
esine	-576
▁göre	-577
▁alan	-578
▁düz	-579
oloj	-580
iyas	-581
▁ist	-582
büm	-583
▁kiş	-584
kan	-585
▁san	-586
por	-587
mektedir	-588
▁doğumlular	-589
una	-590
ust	-591
:#	-592
▁şek	-593
▁kazan	-594
ent	-595
▁ev	-596
▁göster	-597
▁Kon	-598
niversit	-599
bul	-600
▁olduğu	-601
▁etti	-602
▁yüzyıl	-603
▁alt	-604
rak	-605
▁Par	-606
na	-607
ğini	-608
ehir	-609
eg	-610
▁den	-611
▁İngil	-612
▁sağ	-613
ret	-614
▁–	-615
ley	-616
▁öğ	-617
edi	-618
▁St	-619
ezon	-620
▁Baş	-621
çe	-622
▁gir	-623
azı	-624
▁Frans	-625
▁Part	-626
ama	-627
stanbul	-628
▁aldı	-629
▁Alman	-630
▁Ak	-631
erek	-632
lerini	-633
ge	-634
lara	-635
larını	-636
▁şarkı	-637
▁ür	-638
▁İl	-639
ye	-640
nde	-641
çek	-642
üp	-643
▁Os	-644
ka	-645
▁Devlet	-646
▁yayın	-647
▁İstanbul	-648
▁kap	-649
ral	-650
▁%	-651
▁ort	-652
▁style	-653
hur	-654
▁müz	-655
ımı	-656
▁neden	-657
▁diğer	-658
▁bas	-659
▁Üniversit	-660
▁her	-661
ide	-662
maya	-663
▁belir	-664
▁Gen	-665
▁Gün	-666
▁bak	-667
▁yan	-668
▁yol	-669
▁der	-670
▁diz	-671
▁ül	-672
▁the	-673
▁etk	-674
▁Mar	-675
üf	-676
▁tarihinde	-677
cü	-678
mi	-679
▁birlikte	-680
▁dur	-681
alık	-682
▁tem	-683
▁tam	-684
▁oluş	-685
ilmiştir	-686
▁oyuncu	-687
▁Partisi	-688
▁ser	-689
inal	-690
▁hak	-691
lat	-692
▁çek	-693
▁Ayrıca	-694
▁Dünya	-695
ast	-696
▁ul	-697
▁adı	-698
▁har	-699
ru	-700
umhur	-701
▁Ek	-702
▁maç	-703
ampiyon	-704
▁yaptı	-705
▁sezon	-706
sek	-707
▁kıs	-708
idth	-709
malar	-710
▁kab	-711
▁Rus	-712
▁kay	-713
▁albüm	-714
▁karşı	-715
▁Amerikalı	-716
ant	-717
sa	-718
iyor	-719
"|	-720
▁hay	-721
▁üç	-722
▁Ödül	-723
istem	-724
si	-725
lerde	-726
abilir	-727
ıy	-728
nda	-729
▁merkez	-730
ht	-731
eyi	-732
▁mil	-733
larının	-734
▁Avrup	-735
▁Br	-736
se	-737
ünde	-738
▁üy	-739
▁kom	-740
▁tür	-741
▁olduğ	-742
orm	-743
▁oyn	-744
üst	-745
▁As	-746
lerinde	-747
luk	-748
▁önem	-749
ew	-750
▁San	-751
acı	-752
rik	-753
▁Osman	-754
▁Lig	-755
lerinin	-756
nun	-757
▁Birleş	-758
▁bo	-759
ılır	-760
▁Öz	-761
▁ayn	-762
ece	-763
▁Avrupa	-764
oc	-765
▁açık	-766
▁kend	-767
leştir	-768
▁gerçek	-769
▁Kur	-770
ulu	-771
diği	-772
all	-773
enin	-774
lığ	-775
||	-776
▁ülk	-777
▁taş	-778
mesi	-779
ell	-780
▁Pro	-781
ellikle	-782
acak	-783
lus	-784
▁siyas	-785
▁Son	-786
▁aynı	-787
▁düzen	-788
arat	-789
▁Savaş	-790
▁res	-791
▁Mart	-792
▁şekil	-793
▁Tar	-794
▁kadın	-795
ber	-796
▁ya	-797
▁Yaş	-798
and	-799
ocu	-800
▁Ey	-801
ünü	-802
▁ancak	-803
ou	-804
▁eğ	-805
▁gelen	-806
▁İngiliz	-807
▁Üniversitesi	-808
▁başladı	-809
adan	-810
ilik	-811
indeki	-812
landı	-813
▁bölüm	-814
▁uyg	-815
▁Birleşik	-816
▁adlı	-817
..	-818
▁sistem	-819
▁ada	-820
▁bağlı	-821
nik	-822
eşit	-823
▁kö	-824
▁erk	-825
sız	-826
▁Cumhur	-827
oğu	-828
▁im	-829
▁fark	-830
▁Amerika	-831
▁Le	-832
yi	-833
lanan	-834
bet	-835
vet	-836
ilmiş	-837
▁içer	-838
▁savaş	-839
▁Ağ	-840
▁üret	-841
landır	-842
▁Bel	-843
▁Ol	-844
larına	-845
▁li	-846
▁met	-847
▁bilin	-848
▁ok	-849
▁In	-850
end	-851
▁köy	-852
▁bulunan	-853
esini	-854
uzey	-855
▁mad	-856
son	-857
▁Tem	-858
▁hem	-859
▁Hal	-860
▁Osmanlı	-861
▁it	-862
ecek	-863
ıştır	-864
van	-865
iyi	-866
▁kor	-867
▁az	-868
▁am	-869
tik	-870
atik	-871
▁gerek	-872
ker	-873
▁aş	-874
uc	-875
▁Top	-876
▁sal	-877
rub	-878
ang	-879
▁ağ	-880
ud	-881
▁yet	-882
▁tel	-883
ılık	-884
▁önemli	-885
lere	-886
bir	-887
oh	-888
▁eski	-889
▁May	-890
▁öğren	-891
▁Rom	-892
).	-893
ılmıştır	-894
lendir	-895
▁mü	-896
ich	-897
▁oluştur	-898
▁ro	-899
illî	-900
▁durum	-901
dar	-902
▁çev	-903
▁dış	-904
çı	-905
▁Film	-906
▁söz	-907
aştır	-908
▁tamam	-909
ation	-910
esinin	-911
▁Har	-912
tar	-913
▁and	-914
gcolor	-915
▁Kas	-916
liğ	-917
▁önce	-918
yal	-919
ort	-920
▁şekilde	-921
üc	-922
▁Haz	-923
▁Oyun	-924
eket	-925
▁yüksek	-926
aret	-927
▁ilg	-928
çok	-929
elik	-930
lay	-931
▁tüm	-932
hil	-933
▁Bil	-934
parat	-935
▁faz	-936
ındaki	-937
▁width	-938
asar	-939
▁El	-940
▁Ulus	-941
▁mo	-942
zer	-943
▁futbolcular	-944
parator	-945
▁yapılan	-946
▁üst	-947
▁list	-948
▁Pr	-949
alet	-950
▁kit	-951
▁II	-952
ton	-953
arası	-954
irket	-955
ros	-956
▁insanlar	-957
yalı	-958
olu	-959
▁olduğunu	-960
lerine	-961
ina	-962
ff	-963
luğu	-964
▁ayr	-965
▁biri	-966
▁üzere	-967
las	-968
iran	-969
▁Sh	-970
ost	-971
▁grup	-972
işk	-973
etir	-974
▁sanat	-975
bgcolor	-976
ord	-977
tü	-978
elen	-979
lül	-980
itim	-981
ue	-982
üçük	-983
▁filmler	-984
▁Cumhuriyet	-985
▁erkek	-986
ron	-987
ali	-988
lardan	-989
▁devam	-990
ılmış	-991
▁Bak	-992
asına	-993
▁At	-994
▁getir	-995
▁olmak	-996
alan	-997
▁ör	-998
▁bazı	-999
müş	-1000
dından	-1001
▁nüf	-1002
urg	-1003
▁Mayıs	-1004
▁söy	-1005
ug	-1006
▁Böl	-1007
sal	-1008
▁iz	-1009
▁ölen	-1010
can	-1011
eki	-1012
▁kabul	-1013
▁kan	-1014
▁Ad	-1015
▁tur	-1016
▁içinde	-1017
▁değiş	-1018
eks	-1019
▁Kal	-1020
ğını	-1021
ınır	-1022
▁üzerine	-1023
ert	-1024
muz	-1025
▁dil	-1026
▁yazar	-1027
ni	-1028
▁sor	-1029
meye	-1030
▁Ödülü	-1031
▁Ocak	-1032
▁çocu	-1033
▁Kral	-1034
ucu	-1035
▁İm	-1036
▁Tr	-1037
▁Kup	-1038
▁hük	-1039
çiler	-1040
onya	-1041
lerinden	-1042
isan	-1043
larından	-1044
▁dest	-1045
▁AB	-1046
▁İtal	-1047
▁.	-1048
▁Eylül	-1049
eviz	-1050
▁Es	-1051
dığı	-1052
▁Ekim	-1053
▁Kom	-1054
▁tut	-1055
▁çıkar	-1056
▁kez	-1057
kı	-1058
land	-1059
▁Kasım	-1060
üv	-1061
▁Şampiyon	-1062
ess	-1063
▁Fransız	-1064
▁ilç	-1065
üne	-1066
▁birçok	-1067
▁Af	-1068
▁vardır	-1069
sı	-1070
yet	-1071
▁ter	-1072
▁Haziran	-1073
tor	-1074
▁Kan	-1075
▁önc	-1076
ğü	-1077
▁Tarih	-1078
▁ben	-1079
ici	-1080
▁dir	-1081
ektör	-1082
▁İlk	-1083
▁devlet	-1084
eor	-1085
▁rol	-1086
▁Ab	-1087
onom	-1088
aha	-1089
▁Temmuz	-1090
gan	-1091
ustos	-1092
▁Dem	-1093
▁fazla	-1094
▁New	-1095
▁alın	-1096
▁yarış	-1097
▁ölenler	-1098
▁güç	-1099
▁parç	-1100
▁çeşit	-1101
▁uygul	-1102
unan	-1103
▁km	-1104
▁Nisan	-1105
kanı	-1106
our	-1107
▁Pol	-1108
layan	-1109
▁sat	-1110
gram	-1111
="#	-1112
▁Savaşı	-1113
▁:	-1114
▁Th	-1115
▁Ağustos	-1116
▁ardından	-1117
ens	-1118
ie	-1119
lin	-1120
▁göz	-1121
▁yaklaş	-1122
yı	-1123
lararası	-1124
izm	-1125
▁eden	-1126
evizyon	-1127
▁olmuştur	-1128
ana	-1129
ültür	-1130
▁dol	-1131
tu	-1132
▁yard	-1133
ebilir	-1134
▁Mil	-1135
▁Man	-1136
▁bit	-1137
▁“	-1138
▁ikinci	-1139
tiv	-1140
lama	-1141
yo	-1142
muştur	-1143
▁siyaset	-1144
▁şirket	-1145
▁Şub	-1146
▁uzun	-1147
▁millî	-1148
▁genel	-1149
▁şehir	-1150
▁Devletleri	-1151
aat	-1152
ordu	-1153
▁insan	-1154
▁Kor	-1155
▁başar	-1156
▁sırasında	-1157
gel	-1158
▁sin	-1159
▁for	-1160
▁Gal	-1161
üb	-1162
isinde	-1163
▁farklı	-1164
▁kol	-1165
lak	-1166
▁Ada	-1167
mir	-1168
▁ABD	-1169
▁pol	-1170
ehr	-1171
▁geçir	-1172
per	-1173
ank	-1174
▁Aralık	-1175
ari	-1176
tif	-1177
▁Bey	-1178
▁mah	-1179
▁geri	-1180
▁boyun	-1181
aber	-1182
▁edildi	-1183
▁grub	-1184
▁Bur	-1185
enler	-1186
ry	-1187
fer	-1188
rist	-1189
ime	-1190
▁Kad	-1191
▁'	-1192
▁Kupası	-1193
▁müzik	-1194
▁Yaşayan	-1195
▁iyi	-1196
ind	-1197
▁kendi	-1198
imp	-1199
▁ilgili	-1200
ograf	-1201
▁üzerinde	-1202
▁Şubat	-1203
▁ilişk	-1204
▁kariy	-1205
▁Ank	-1206
osyal	-1207
▁eş	-1208
▁filmleri	-1209
▁yakın	-1210
tern	-1211
ıt	-1212
▁sayısı	-1213
duğu	-1214
sil	-1215
ımcı	-1216
▁bin	-1217
▁Fransa	-1218
imler	-1219
▁anlam	-1220
eme	-1221
anan	-1222
▁Her	-1223
lük	-1224
▁özel	-1225
ika	-1226
▁kız	-1227
▁Kat	-1228
▁hareket	-1229
ale	-1230
▁İmparator	-1231
▁Büyük	-1232
üsü	-1233
▁karak	-1234
▁Müz	-1235
oloji	-1236
izmet	-1237
▁er	-1238
▁yaşam	-1239
uvvet	-1240
▁itib	-1241
anın	-1242
▁ün	-1243
▁takımı	-1244
▁Güney	-1245
▁uç	-1246
imleri	-1247
▁ark	-1248
▁final	-1249
br	-1250
▁tah	-1251
▁Daha	-1252
▁zor	-1253
ınız	-1254
▁dör	-1255
▁geliştir	-1256
ünün	-1257
▁küçük	-1258
▁görün	-1259
▁nedeniyle	-1260
adece	-1261
oğraf	-1262
▁Ancak	-1263
azet	-1264
▁kes	-1265
▁ulaş	-1266
▁Parti	-1267
▁tanım	-1268
del	-1269
▁duy	-1270
▁Bar	-1271
▁ail	-1272
▁su	-1273
rar	-1274
▁doğru	-1275
▁Den	-1276
▁hav	-1277
▁Jap	-1278
▁Car	-1279
okr	-1280
ond	-1281
▁git	-1282
ork	-1283
nı	-1284
ıp	-1285
ova	-1286
akat	-1287
▁düşün	-1288
▁ortaya	-1289
▁Ankara	-1290
▁gur	-1291
san	-1292
▁sınır	-1293
leme	-1294
▁tes	-1295
▁tab	-1296
▁kişi	-1297
▁yeniden	-1298
▁saldır	-1299
lenen	-1300
siz	-1301
io	-1302
▁hat	-1303
aj	-1304
ian	-1305
▁Han	-1306
inc	-1307
muş	-1308
oş	-1309
oğun	-1310
pr	-1311
▁çeşitli	-1312
▁X	-1313
▁Muh	-1314
undan	-1315
deş	-1316
maları	-1317
eral	-1318
emi	-1319
masına	-1320
isyon	-1321
▁em	-1322
fes	-1323
▁gurbet	-1324
▁program	-1325
▁eser	-1326
gün	-1327
▁asker	-1328
ilerin	-1329
ümüz	-1330
▁boyunca	-1331
üncü	-1332
oğlu	-1333
▁destek	-1334
▁sayı	-1335
asının	-1336
ilmesi	-1337
▁Tek	-1338
▁Ev	-1339
▁yen	-1340
ılması	-1341
▁hakk	-1342
gin	-1343
▁Hol	-1344
▁görül	-1345
▁kaynak	-1346
▁kurulan	-1347
▁sı	-1348
▁Yar	-1349
abil	-1350
▁çocuk	-1351
lo	-1352
masını	-1353
▁Ber	-1354
▁yılları	-1355
esel	-1356
▁Avus	-1357
▁geliş	-1358
adığı	-1359
▁karar	-1360
lis	-1361
▁muh	-1362
▁bakınız	-1363
▁Alt	-1364
style	-1365
ovyet	-1366
▁olup	-1367
▁ulus	-1368
ümü	-1369
▁teknik	-1370
int	-1371
▁eğitim	-1372
▁zamanda	-1373
ite	-1374
▁Yunan	-1375
ğin	-1376
▁televizyon	-1377
▁Almanya	-1378
ij	-1379
▁Res	-1380
▁sev	-1381
lerden	-1382
baş	-1383
▁art	-1384
itesi	-1385
▁yerleş	-1386
▁roman	-1387
▁Genel	-1388
▁bulunmaktadır	-1389
▁Der	-1390
▁La	-1391
▁İyi	-1392
of	-1393
ohn	-1394
ema	-1395
enk	-1396
üven	-1397
ök	-1398
dık	-1399
ong	-1400
▁Tur	-1401
▁sonr	-1402
▁/	-1403
▁hız	-1404
▁mak	-1405
▁Ok	-1406
ırak	-1407
▁Hay	-1408
asını	-1409
gı	-1410
ısında	-1411
▁sadece	-1412
▁nüfus	-1413
ideo	-1414
▁Gür	-1415
▁bilim	-1416
▁Sovyet	-1417
▁değer	-1418
ins	-1419
▁haz	-1420
alya	-1421
▁karakter	-1422
▁Ser	-1423
▁Olimp	-1424
ach	-1425
▁&	-1426
▁dahil	-1427
isinin	-1428
▁yas	-1429
▁hizmet	-1430
▁Çin	-1431
larla	-1432
ımsız	-1433
▁ödül	-1434
▁hayat	-1435
▁ede	-1436
▁çevr	-1437
▁gön	-1438
iya	-1439
kü	-1440
▁tr	-1441
▁ot	-1442
tiği	-1443
eyen	-1444
usunda	-1445
▁topl	-1446
▁Sp	-1447
▁araştır	-1448
▁eder	-1449
▁yok	-1450
▁mez	-1451
▁bilg	-1452
▁sen	-1453
▁tarihi	-1454
▁İk	-1455
▁yayım	-1456
ılm	-1457
▁spor	-1458
▁plan	-1459
ilmektedir	-1460
öyle	-1461
ûmet	-1462
tığı	-1463
",	-1464
aşa	-1465
▁İspan	-1466
▁has	-1467
FA	-1468
ınıf	-1469
▁edilen	-1470
▁halk	-1471
ayın	-1472
iydi	-1473
orn	-1474
itik	-1475
▁Kuzey	-1476
olog	-1477
isini	-1478
▁geniş	-1479
det	-1480
align	-1481
tak	-1482
ılım	-1483
▁ses	-1484
▁yaklaşık	-1485
▁Wil	-1486
▁süre	-1487
▁bırak	-1488
dik	-1489
vek	-1490
▁Ah	-1491
▁Dan	-1492
ate	-1493
▁öldür	-1494
▁isim	-1495
▁Em	-1496
med	-1497
qu	-1498
ift	-1499
▁bur	-1500
cısı	-1501
▁John	-1502
▁inş	-1503
müştür	-1504
▁Mah	-1505
▁Kul	-1506
▁yüzyılda	-1507
▁yerine	-1508
ünden	-1509
▁tasar	-1510
▁Ali	-1511
udi	-1512
▁Olimpiyat	-1513
▁can	-1514
uğ	-1515
▁değil	-1516
▁gol	-1517
▁bab	-1518
▁Toplam	-1519
▁Rusya	-1520
▁yaptığı	-1521
ga	-1522
▁oğ	-1523
gen	-1524
umu	-1525
esinden	-1526
eti	-1527
▁sık	-1528
ver	-1529
anda	-1530
anıt	-1531
ire	-1532
bay	-1533
▁toplam	-1534
▁altında	-1535
esiyle	-1536
▁dün	-1537
▁ey	-1538
tem	-1539
▁Yaz	-1540
▁dok	-1541
gın	-1542
▁Halk	-1543
▁mev	-1544
▁Re	-1545
adem	-1546
cel	-1547
ize	-1548
avun	-1549
letvek	-1550
▁şarkıcı	-1551
ith	-1552
▁haf	-1553
ight	-1554
alt	-1555
▁Birliği	-1556
▁anlaş	-1557
gu	-1558
▁Mac	-1559
osu	-1560
▁kazandı	-1561
▁Un	-1562
▁hazır	-1563
▁kısa	-1564
kaç	-1565
tin	-1566
▁rağ	-1567
▁Mo	-1568
▁geldi	-1569
▁Yeni	-1570
▁Yah	-1571
uluk	-1572
ilis	-1573
▁İş	-1574
luğ	-1575
▁Tak	-1576
▁Ma	-1577
▁rağmen	-1578
ledi	-1579
eştir	-1580
▁uzak	-1581
▁şampiyon	-1582
ült	-1583
▁Afrik	-1584
▁Orta	-1585
iss	-1586
▁Cumhuriyeti	-1587
▁dik	-1588
iyatro	-1589
sam	-1590
lardır	-1591
▁Hav	-1592
▁Sa	-1593
▁boy	-1594
▁İz	-1595
▁Roma	-1596
sik	-1597
▁kültür	-1598
▁On	-1599
▁Bul	-1600
trol	-1601
▁karşıl	-1602
siyon	-1603
▁And	-1604
▁Sel	-1605
işim	-1606
▁dört	-1607
isine	-1608
▁gazet	-1609
gar	-1610
▁yüksel	-1611
tere	-1612
▁ait	-1613
▁direktör	-1614
▁Q	-1615
▁ölüm	-1616
▁gönder	-1617
▁kır	-1618
her	-1619
asyonu	-1620
▁Dav	-1621
▁FC	-1622
▁if	-1623
lamak	-1624
▁ana	-1625
ilah	-1626
▁yapı	-1627
▁temsil	-1628
▁onun	-1629
▁genellikle	-1630
lor	-1631
▁De	-1632
▁Bas	-1633
▁gerçekleştir	-1634
co	-1635
▁dağ	-1636
▁sonuç	-1637
▁başkan	-1638
▁milyon	-1639
ung	-1640
ıcı	-1641
ketbol	-1642
▁İsv	-1643
▁belirt	-1644
isk	-1645
▁Mal	-1646
mayı	-1647
▁Amerikan	-1648
▁Mon	-1649
▁per	-1650
lanmıştır	-1651
ick	-1652
▁dönüş	-1653
ami	-1654
▁olur	-1655
▁olması	-1656
ary	-1657
ars	-1658
▁Bunun	-1659
▁Sch	-1660
üler	-1661
bak	-1662
▁sun	-1663
nek	-1664
▁kullanıl	-1665
▁Mad	-1666
▁ayrıca	-1667
▁Şarkı	-1668
rom	-1669
▁Ben	-1670
lamıştır	-1671
iyan	-1672
▁Mü	-1673
▁sınıf	-1674
▁def	-1675
▁kaç	-1676
ğında	-1677
▁=	-1678
lendi	-1679
les	-1680
ser	-1681
ore	-1682
▁hakkında	-1683
▁başka	-1684
ışı	-1685
ice	-1686
▁kim	-1687
▁Sal	-1688
▁kuzey	-1689
uyla	-1690
▁değiştir	-1691
▁Doğu	-1692
▁Ed	-1693
elerin	-1694
▁id	-1695
▁un	-1696
▁tekrar	-1697
ehri	-1698
▁şehr	-1699
spor	-1700
▁yür	-1701
amak	-1702
▁olduk	-1703
▁Sanat	-1704
▁Doğ	-1705
▁elekt	-1706
cular	-1707
ji	-1708
air	-1709
▁Kadın	-1710
urt	-1711
▁mal	-1712
▁gurbetçi	-1713
▁güney	-1714
▁din	-1715
▁Meh	-1716
▁York	-1717
▁av	-1718
ile	-1719
▁elde	-1720
▁Gr	-1721
iyordu	-1722
▁yılı	-1723
lüm	-1724
ity	-1725
▁verdi	-1726
▁Eur	-1727
▁öğret	-1728
▁konuş	-1729
▁etmek	-1730
▁kitap	-1731
▁nok	-1732
ace	-1733
ck	-1734
olojik	-1735
▁kr	-1736
▁Col	-1737
▁İngiltere	-1738
▁birkaç	-1739
ph	-1740
omb	-1741
izi	-1742
ydı	-1743
▁Co	-1744
▁Merkez	-1745
aban	-1746
▁arasındaki	-1747
▁dal	-1748
kın	-1749
▁yaşında	-1750
▁Pet	-1751
▁Sur	-1752
▁kuş	-1753
▁kayı	-1754
min	-1755
▁seçim	-1756
▁ifade	-1757
ğinde	-1758
▁onu	-1759
els	-1760
ince	-1761
lav	-1762
ütün	-1763
uan	-1764
▁Şampiyonası	-1765
evi	-1766
▁milletvek	-1767
▁hiç	-1768
▁kuvvet	-1769
▁Kol	-1770
eda	-1771
▁hükûmet	-1772
▁Sam	-1773
▁beş	-1774
▁sırada	-1775
▁olay	-1776
▁dünya	-1777
to	-1778
azi	-1779
adaş	-1780
▁adıyla	-1781
aw	-1782
▁oyuncuları	-1783
▁Rob	-1784
hi	-1785
ılığı	-1786
pe	-1787
▁kontrol	-1788
orman	-1789
▁sahiptir	-1790
▁İtalya	-1791
▁Met	-1792
▁Bay	-1793
▁So	-1794
akült	-1795
aren	-1796
ediy	-1797
landa	-1798
▁Mic	-1799
▁geçen	-1800
▁kullanılan	-1801
lerle	-1802
▁İmparatorluğu	-1803
▁bulunur	-1804
fi	-1805
▁almıştır	-1806
▁bilinen	-1807
▁Be	-1808
▁etm	-1809
▁temel	-1810
▁çıktı	-1811
▁Ulusal	-1812
ock	-1813
▁j	-1814
▁ölç	-1815
▁toprak	-1816
▁ağır	-1817
eder	-1818
▁ekonom	-1819
▁dizi	-1820
▁Paşa	-1821
▁He	-1822
▁ele	-1823
▁gelir	-1824
▁seb	-1825
ly	-1826
▁filmi	-1827
otor	-1828
▁dav	-1829
▁katıldı	-1830
uma	-1831
▁kardeş	-1832
▁oluşan	-1833
▁bey	-1834
▁sonunda	-1835
▁yardım	-1836
▁ber	-1837
eci	-1838
▁Tan	-1839
izik	-1840
meni	-1841
▁kav	-1842
▁konu	-1843
▁altı	-1844
▁Has	-1845
▁Com	-1846
bi	-1847
▁imz	-1848
atör	-1849
ekiz	-1850
tör	-1851
▁Per	-1852
▁Kır	-1853
▁Yer	-1854
▁çalışmalar	-1855
anlığı	-1856
rol	-1857
aal	-1858
ekli	-1859
istik	-1860
▁çiz	-1861
▁özellik	-1862
▁Bo	-1863
▁Ligi	-1864
▁e	-1865
▁Sin	-1866
▁Uluslararası	-1867
▁Su	-1868
isy	-1869
▁komut	-1870
rim	-1871
▁mes	-1872
▁Mat	-1873
lanmış	-1874
▁Kız	-1875
▁yapan	-1876
ukuk	-1877
▁—	-1878
burg	-1879
▁boş	-1880
tay	-1881
▁Yön	-1882
▁adlandır	-1883
▁Ör	-1884
orum	-1885
▁mey	-1886
▁inşa	-1887
▁video	-1888
▁edilmiştir	-1889
▁trans	-1890
▁özellikle	-1891
ulan	-1892
▁oğlu	-1893
sk	-1894
efer	-1895
mer	-1896
▁Con	-1897
dem	-1898
▁deniz	-1899
▁olmayan	-1900
liam	-1901
sh	-1902
▁güven	-1903
▁Bun	-1904
cusu	-1905
▁kısm	-1906
ediye	-1907
keri	-1908
▁iddi	-1909
▁görüş	-1910
▁Sır	-1911
▁kent	-1912
▁öğrenim	-1913
▁genç	-1914
▁Yıl	-1915
one	-1916
▁Sar	-1917
ner	-1918
oç	-1919
▁üyesi	-1920
▁sıra	-1921
▁sanatçı	-1922
▁giy	-1923
▁öldü	-1924
ısır	-1925
▁beri	-1926
▁Mus	-1927
▁ord	-1928
▁pop	-1929
▁yapım	-1930
era	-1931
itan	-1932
▁Aş	-1933
▁bar	-1934
dern	-1935
▁asıl	-1936
▁madde	-1937
cut	-1938
▁Fakült	-1939
▁alır	-1940
▁Müzik	-1941
▁arkadaş	-1942
▁Bağ	-1943
▁çağ	-1944
▁Sul	-1945
elerde	-1946
aması	-1947
▁ilçesine	-1948
ai	-1949
ris	-1950
raki	-1951
yası	-1952
▁Port	-1953
▁Kaz	-1954
▁Kit	-1955
▁şark	-1956
▁sol	-1957
▁itibaren	-1958
din	-1959
▁adam	-1960
▁profes	-1961
▁Fran	-1962
▁dayan	-1963
▁man	-1964
▁İtalyan	-1965
com	-1966
aul	-1967
▁Arap	-1968
ciler	-1969
▁Azer	-1970
▁eleştir	-1971
tion	-1972
ts	-1973
▁Aynı	-1974
▁num	-1975
mem	-1976
▁müca	-1977
▁Anad	-1978
width	-1979
baycan	-1980
lim	-1981
▁çıkan	-1982
▁Can	-1983
▁suç	-1984
▁Afrika	-1985
▁İslam	-1986
▁savun	-1987
▁yönetim	-1988
▁Yap	-1989
."	-1990
afa	-1991
ham	-1992
▁Oy	-1993
▁FI	-1994
▁merkezi	-1995
▁biç	-1996
▁kitab	-1997
▁sahipleri	-1998
yonel	-1999
▁ne	-2000
▁listesi	-2001
▁Paris	-2002
▁saat	-2003
▁Sen	-2004
ografi	-2005
▁Ham	-2006
▁teor	-2007
▁pat	-2008
BM	-2009
▁bes	-2010
▁silah	-2011
▁Başkan	-2012
ague	-2013
teki	-2014
▁kas	-2015
▁model	-2016
▁Se	-2017
oks	-2018
▁Köy	-2019
res	-2020
▁Lis	-2021
▁oy	-2022
iri	-2023
▁Altın	-2024
leyen	-2025
FF	-2026
▁Anadolu	-2027
▁sonucu	-2028
biyat	-2029
üper	-2030
▁mik	-2031
▁İngilizce	-2032
▁kariyer	-2033
▁şey	-2034
acağ	-2035
▁beraber	-2036
):	-2037
▁Demokr	-2038
bo	-2039
▁bağımsız	-2040
▁Geç	-2041
▁Bab	-2042
▁oyunları	-2043
be	-2044
▁Yük	-2045
▁işlem	-2046
▁Yayın	-2047
ood	-2048
▁edil	-2049
▁Batı	-2050
▁bah	-2051
lev	-2052
estiv	-2053
▁İç	-2054
nız	-2055
ier	-2056
▁Az	-2057
▁sinema	-2058
dana	-2059
▁gerçekleş	-2060
▁Mec	-2061
▁keş	-2062
row	-2063
▁edilir	-2064
▁büy	-2065
taki	-2066
▁değişik	-2067
▁kam	-2068
▁sosyal	-2069
sen	-2070
ke	-2071
▁anlat	-2072
▁döneminde	-2073
kr	-2074
manın	-2075
▁kıy	-2076
▁resmi	-2077
▁basketbol	-2078
▁Azerbaycan	-2079
ener	-2080
▁katıl	-2081
üldü	-2082
▁hüküm	-2083
▁kaldı	-2084
ision	-2085
adet	-2086
▁Yarış	-2087
▁yönetmen	-2088
▁Yönet	-2089
▁aday	-2090
▁çöz	-2091
▁Nor	-2092
▁verilen	-2093
▁Tel	-2094
yol	-2095
ED	-2096
ücü	-2097
rop	-2098
stit	-2099
▁,	-2100
meler	-2101
▁Bal	-2102
▁Gir	-2103
▁yanı	-2104
alnız	-2105
▁çıkış	-2106
tık	-2107
▁Mak	-2108
▁Ne	-2109
▁Kr	-2110
▁Uz	-2111
▁Fil	-2112
▁üyeleri	-2113
ve	-2114
▁amacı	-2115
▁İran	-2116
suz	-2117
▁Ön	-2118
ahat	-2119
▁okul	-2120
yum	-2121
azar	-2122
▁kuruluş	-2123
liğini	-2124
eği	-2125
neğin	-2126
hend	-2127
▁siyasi	-2128
▁oranı	-2129
▁Erk	-2130
SB	-2131
▁yarat	-2132
ica	-2133
▁sezonunda	-2134
rail	-2135
maz	-2136
ass	-2137
iliği	-2138
ayet	-2139
▁Et	-2140
ho	-2141
▁kalan	-2142
des	-2143
▁ama	-2144
▁Biz	-2145
▁Char	-2146
forman	-2147
▁Futbol	-2148
▁kral	-2149
▁şekl	-2150
▁Lond	-2151
au	-2152
▁kayıt	-2153
▁part	-2154
▁adını	-2155
▁kariyeri	-2156
adık	-2157
enn	-2158
▁Mor	-2159
▁politik	-2160
▁sürdür	-2161
ekler	-2162
▁etmiştir	-2163
arlar	-2164
▁almaktadır	-2165
ışık	-2166
▁yapmıştır	-2167
▁dışında	-2168
▁günümüz	-2169
▁inan	-2170
▁organ	-2171
▁uğ	-2172
lüğü	-2173
▁No	-2174
▁çift	-2175
▁yapımı	-2176
▁sem	-2177
lüğ	-2178
▁yarı	-2179
▁yat	-2180
▁aldığı	-2181
▁Don	-2182
▁tic	-2183
arp	-2184
aaliyet	-2185
▁kut	-2186
▁dolayı	-2187
lanır	-2188
▁Dr	-2189
▁Mısır	-2190
▁yaygın	-2191
▁ortak	-2192
▁Deniz	-2193
asa	-2194
ilim	-2195
▁bun	-2196
▁to	-2197
asıyla	-2198
▁Bölg	-2199
asından	-2200
▁mat	-2201
BMM	-2202
▁Diğer	-2203
nden	-2204
▁Hak	-2205
sun	-2206
▁Eğ	-2207
▁Beş	-2208
str	-2209
iir	-2210
▁giriş	-2211
▁İst	-2212
▁TBMM	-2213
kat	-2214
▁kullanılır	-2215
alarında	-2216
bah	-2217
▁birbir	-2218
ino	-2219
▁doğdu	-2220
▁Ter	-2221
▁şu	-2222
rosu	-2223
alle	-2224
▁benzer	-2225
▁Fer	-2226
▁uyar	-2227
dak	-2228
▁Genç	-2229
▁eyalet	-2230
mez	-2231
▁proj	-2232
ıyor	-2233
▁Gu	-2234
▁rek	-2235
ows	-2236
ae	-2237
▁orta	-2238
▁Sosyal	-2239
▁sistemi	-2240
▁lider	-2241
ive	-2242
▁boz	-2243
▁kaldır	-2244
lisi	-2245
DA	-2246
▁Asya	-2247
üd	-2248
yanın	-2249
lerdir	-2250
elerinde	-2251
▁faaliyet	-2252
▁sahibi	-2253
▁Albüm	-2254
uvar	-2255
anları	-2256
eph	-2257
dele	-2258
dız	-2259
▁Müs	-2260
▁görenler	-2261
mî	-2262
▁Ap	-2263
▁parçası	-2264
su	-2265
▁Sonuç	-2266
▁Aday	-2267
kil	-2268
▁Kür	-2269
▁Gör	-2270
▁gem	-2271
▁bulundu	-2272
ikâ	-2273
eng	-2274
▁gid	-2275
▁Geor	-2276
aların	-2277
▁mevcut	-2278
aca	-2279
andı	-2280
▁form	-2281
dam	-2282
▁saldırı	-2283
▁TV	-2284
▁düny	-2285
▁League	-2286
imar	-2287
▁uluslararası	-2288
▁albümü	-2289
▁yerel	-2290
▁rad	-2291
▁sar	-2292
▁başkanı	-2293
eth	-2294
lemek	-2295
▁Vol	-2296
areb	-2297
hangi	-2298
ani	-2299
larıyla	-2300
▁dönemde	-2301
▁askeri	-2302
HP	-2303
illeri	-2304
▁hüc	-2305
▁Val	-2306
▁tip	-2307
lığını	-2308
taş	-2309
▁Jo	-2310
▁Sol	-2311
best	-2312
▁Japonya	-2313
▁karşılaş	-2314
talık	-2315
▁han	-2316
▁bütün	-2317
▁Hat	-2318
▁etkin	-2319
▁göç	-2320
▁Avustur	-2321
ğine	-2322
▁yıldız	-2323
▁nokt	-2324
gr	-2325
vat	-2326
▁İspanya	-2327
▁üçüncü	-2328
▁yoğun	-2329
▁ener	-2330
nuv	-2331
▁Krallık	-2332
▁Ste	-2333
▁renk	-2334
▁tanın	-2335
▁Me	-2336
▁asıllı	-2337
▁Mehmet	-2338
▁Ger	-2339
''	-2340
▁çat	-2341
.)	-2342
laştır	-2343
ames	-2344
ise	-2345
▁kel	-2346
uldu	-2347
▁kulüp	-2348
▁Avustr	-2349
▁gal	-2350
lah	-2351
▁konusunda	-2352
diler	-2353
kel	-2354
▁yıllarında	-2355
▁toplum	-2356
itler	-2357
▁Mer	-2358
ory	-2359
▁yalnız	-2360
▁Say	-2361
▁Sultan	-2362
amı	-2363
▁Japon	-2364
amış	-2365
▁William	-2366
kin	-2367
▁Ver	-2368
mesine	-2369
The	-2370
▁İkinci	-2371
▁olabilir	-2372
▁yapıl	-2373
▁sonraki	-2374
hendis	-2375
ersiz	-2376
▁babası	-2377
▁çoğu	-2378
amıştır	-2379
▁burada	-2380
▁Bl	-2381
old	-2382
▁|}	-2383
▁tep	-2384
gür	-2385
▁edilm	-2386
▁poz	-2387
▁Pat	-2388
ansı	-2389
▁örnek	-2390
ital	-2391
ternet	-2392
%|	-2393
▁grubu	-2394
▁motor	-2395
▁tiyatro	-2396
ilya	-2397
▁içeren	-2398
▁vardı	-2399
▁re	-2400
▁Di	-2401
krayn	-2402
har	-2403
▁İsrail	-2404
gal	-2405
▁Hrist	-2406
▁Bölüm	-2407
▁Sc	-2408
▁koy	-2409
ish	-2410
▁mut	-2411
öylece	-2412
▁iht	-2413
▁Spor	-2414
endi	-2415
elerinin	-2416
▁For	-2417
▁Kö	-2418
güt	-2419
▁Kem	-2420
ori	-2421
SBN	-2422
▁Must	-2423
▁Ödülleri	-2424
isay	-2425
▁oyuncular	-2426
leriyle	-2427
langı	-2428
▁fil	-2429
▁düzenlenen	-2430
▁Oyuncu	-2431
asal	-2432
▁Yüksek	-2433
▁FIFA	-2434
▁sayıda	-2435
ata	-2436
▁lig	-2437
▁amaç	-2438
▁ayrı	-2439
▁kulüb	-2440
ash	-2441
▁müzi	-2442
▁Ho	-2443
ont	-2444
▁İsveç	-2445
ida	-2446
▁fakat	-2447
▁Kay	-2448
ba	-2449
▁Kap	-2450
▁Yol	-2451
▁idar	-2452
▁Ko	-2453
nesi	-2454
▁piyas	-2455
are	-2456
▁Mur	-2457
ışma	-2458
xt	-2459
berg	-2460
▁çalıştı	-2461
...	-2462
▁Üç	-2463
▁mek	-2464
▁herhangi	-2465
arıyla	-2466
arş	-2467
▁iler	-2468
▁yağ	-2469
▁kaybet	-2470
▁Bat	-2471
omet	-2472
ıldığı	-2473
rek	-2474
▁ziy	-2475
ld	-2476
▁araç	-2477
▁Fakültesi	-2478
▁hemen	-2479
▁zam	-2480
▁uygulam	-2481
▁web	-2482
▁Is	-2483
emen	-2484
▁sonuc	-2485
masının	-2486
▁bulunduğu	-2487
▁çap	-2488
pit	-2489
ons	-2490
NA	-2491
▁Jos	-2492
▁Bizans	-2493
▁bat	-2494
▁ürün	-2495
onu	-2496
▁bek	-2497
▁girdi	-2498
▁Dön	-2499
▁sona	-2500
▁biçim	-2501
▁pek	-2502
▁koş	-2503
▁Grup	-2504
▁cin	-2505
▁Müslüm	-2506
▁Tarihçe	-2507
▁Ukrayn	-2508
▁derg	-2509
▁başlayan	-2510
eceği	-2511
vi	-2512
▁soy	-2513
▁Grub	-2514
▁ayak	-2515
abancı	-2516
.,	-2517
▁teş	-2518
iel	-2519
▁[	-2520
▁cez	-2521
▁Demir	-2522
▁Bor	-2523
▁bildir	-2524
▁benz	-2525
▁MÖ	-2526
▁etkil	-2527
▁performan	-2528
▁Tüm	-2529
II	-2530
lenmiştir	-2531
form	-2532
▁idi	-2533
▁tart	-2534
▁hiçbir	-2535
▁taşı	-2536
ingle	-2537
▁Ot	-2538
▁ünlü	-2539
lenir	-2540
▁isimli	-2541
▁edilmiş	-2542
▁bunun	-2543
ilere	-2544
▁ettiği	-2545
▁Başkanı	-2546
▁Kı	-2547
▁yine	-2548
▁Ef	-2549
hy	-2550
ematik	-2551
▁Mc	-2552
ırı	-2553
▁Eski	-2554
▁ilan	-2555
▁gez	-2556
doğ	-2557
▁gür	-2558
taj	-2559
▁Robert	-2560
▁don	-2561
▁Olimpiyatları	-2562
▁fot	-2563
▁transfer	-2564
▁Ro	-2565
üzel	-2566
▁teh	-2567
meyi	-2568
▁yıllık	-2569
illiyet	-2570
▁Mustafa	-2571
▁siyasetçiler	-2572
▁Kam	-2573
▁izin	-2574
▁Brez	-2575
ww	-2576
▁oper	-2577
dük	-2578
▁ona	-2579
▁Paul	-2580
ean	-2581
▁İzmir	-2582
▁Go	-2583
▁tekn	-2584
▁siyasetçi	-2585
▁çoğun	-2586
▁Özel	-2587
▁Bulgar	-2588
rens	-2589
▁ilet	-2590
▁ISBN	-2591
▁yerleşim	-2592
▁Süper	-2593
▁albümleri	-2594
aba	-2595
▁dair	-2596
▁Londra	-2597
▁rak	-2598
ger	-2599
▁geçti	-2600
▁mağ	-2601
mız	-2602
▁Macar	-2603
acağı	-2604
elsef	-2605
▁Festiv	-2606
ünkü	-2607
▁Final	-2608
lov	-2609
neği	-2610
olar	-2611
▁Yak	-2612
orld	-2613
usal	-2614
atif	-2615
yor	-2616
▁Şehir	-2617
▁nüfusu	-2618
▁ili	-2619
▁Bazı	-2620
▁hava	-2621
▁fizik	-2622
▁haline	-2623
dın	-2624
ona	-2625
▁Suriye	-2626
mesini	-2627
işleri	-2628
▁oynadı	-2629
kenin	-2630
▁alanı	-2631
etik	-2632
▁Gel	-2633
▁Gre	-2634
▁nes	-2635
▁Angel	-2636
eksiyon	-2637
▁Türkçe	-2638
▁kil	-2639
tand	-2640
▁Bakanlığı	-2641
▁Ven	-2642
ilerini	-2643
▁üniversit	-2644
▁Çağ	-2645
▁hâ	-2646
▁Med	-2647
cek	-2648
▁numar	-2649
ıldız	-2650
▁mücadele	-2651
▁bitir	-2652
▁ayında	-2653
acağını	-2654
okal	-2655
▁le	-2656
▁olmuş	-2657
▁içerisinde	-2658
işi	-2659
▁yaşayan	-2660
▁kem	-2661
▁sayf	-2662
▁sıcak	-2663
▁güçlü	-2664
▁uygun	-2665
▁Kim	-2666
▁hede	-2667
▁Wind	-2668
▁yazarı	-2669
erson	-2670
▁Britan	-2671
▁Gran	-2672
▁Roman	-2673
▁otom	-2674
▁taşın	-2675
ille	-2676
▁tal	-2677
▁vers	-2678
▁anlamına	-2679
▁pay	-2680
kar	-2681
▁David	-2682
▁sp	-2683
▁şeklinde	-2684
▁Rad	-2685
▁tanıt	-2686
▁nit	-2687
▁Polonya	-2688
▁yılından	-2689
▁altın	-2690
▁ki	-2691
▁Mos	-2692
masıyla	-2693
lamış	-2694
elerini	-2695
▁Not	-2696
▁deney	-2697
▁sorun	-2698
▁aşağı	-2699
▁küt	-2700
▁başlat	-2701
▁Sev	-2702
▁engel	-2703
lek	-2704
elere	-2705
▁başarılı	-2706
▁dizileri	-2707
▁alanlar	-2708
▁Enstit	-2709
üle	-2710
▁İspanyol	-2711
▁Hen	-2712
▁Fin	-2713
▁yıllarda	-2714
ilerek	-2715
▁Cen	-2716
▁yürüt	-2717
ovision	-2718
isyen	-2719
▁doğr	-2720
Al	-2721
▁Uy	-2722
ümüş	-2723
▁bilgi	-2724
isel	-2725
▁My	-2726
▁Akadem	-2727
▁verildi	-2728
ormal	-2729
▁seçildi	-2730
▁başına	-2731
▁Qu	-2732
▁Hristiyan	-2733
▁Eurovision	-2734
ational	-2735
isayar	-2736
▁gelenek	-2737
ame	-2738
obil	-2739
▁yanında	-2740
▁mezun	-2741
▁Belediy	-2742
▁lis	-2743
▁yardımcı	-2744
▁Ros	-2745
▁Ül	-2746
▁İr	-2747
▁Ac	-2748
hael	-2749
▁Mel	-2750
▁iddia	-2751
ğın	-2752
▁Nüf	-2753
▁uğr	-2754
▁fik	-2755
▁mem	-2756
▁çarp	-2757
lilik	-2758
▁Kızıl	-2759
▁Adalet	-2760
▁İki	-2761
▁yalnızca	-2762
âr	-2763
▁tespit	-2764
anlı	-2765
org	-2766
▁maçta	-2767
▁birleş	-2768
▁başken	-2769
▁veren	-2770
emin	-2771
▁Mez	-2772
adır	-2773
▁Cem	-2774
SC	-2775
ann	-2776
▁kapsam	-2777
▁profesyonel	-2778
▁yılına	-2779
▁hey	-2780
▁Merkezi	-2781
▁değildir	-2782
▁madalya	-2783
red	-2784
▁Te	-2785
▁sey	-2786
my	-2787
madan	-2788
▁Kuvvet	-2789
▁canlandır	-2790
▁yöntem	-2791
▁hast	-2792
ihaz	-2793
ded	-2794
▁kullanım	-2795
▁seslendir	-2796
uel	-2797
BA	-2798
▁keşf	-2799
oğrafya	-2800
üyle	-2801
▁fır	-2802
▁düşük	-2803
▁Ahmet	-2804
▁serbest	-2805
▁Tim	-2806
enc	-2807
edik	-2808
aka	-2809
▁Tay	-2810
▁baz	-2811
ülen	-2812
tiler	-2813
▁kamp	-2814
ışmalar	-2815
▁Ant	-2816
manı	-2817
ısına	-2818
may	-2819
alarda	-2820
acaktır	-2821
▁kanal	-2822
ahr	-2823
hal	-2824
▁ateş	-2825
▁Fo	-2826
ndan	-2827
▁yayınlandı	-2828
▁Pan	-2829
▁Kültür	-2830
ius	-2831
▁nedenle	-2832
▁Kariy	-2833
lex	-2834
▁amacıyla	-2835
▁Seç	-2836
▁ülke	-2837
▁dak	-2838
▁işlet	-2839
▁biy	-2840
▁Kore	-2841
za	-2842
öv	-2843
ısıyla	-2844
▁yık	-2845
▁red	-2846
ân	-2847
▁imparator	-2848
▁kuruldu	-2849
▁oldukça	-2850
▁güreş	-2851
ısını	-2852
lığına	-2853
▁Millî	-2854
net	-2855
▁metre	-2856
▁puan	-2857
▁kilis	-2858
erken	-2859
▁önceki	-2860
▁Art	-2861
▁ordu	-2862
ney	-2863
▁dram	-2864
▁Çek	-2865
▁biridir	-2866
kem	-2867
eşil	-2868
▁sefer	-2869
▁üretim	-2870
İn	-2871
unt	-2872
fik	-2873
ndeki	-2874
▁kir	-2875
▁Dağ	-2876
ısından	-2877
sin	-2878
tp	-2879
▁madal	-2880
ere	-2881
▁Phil	-2882
▁Tarihi	-2883
▁Avusturya	-2884
▁versiyon	-2885
▁hes	-2886
▁sak	-2887
mar	-2888
▁sab	-2889
taydı	-2890
▁verir	-2891
uf	-2892
▁günü	-2893
elerine	-2894
▁Gök	-2895
▁şair	-2896
▁mark	-2897
▁uçak	-2898
▁merkezine	-2899
▁sezonu	-2900
layı	-2901
EFA	-2902
▁sitesi	-2903
▁Sim	-2904
lenmiş	-2905
▁Yunanistan	-2906
▁Str	-2907
▁Rec	-2908
uklu	-2909
medi	-2910
▁Nüfus	-2911
ita	-2912
▁belg	-2913
▁tamamen	-2914
▁hikâ	-2915
▁kurum	-2916
Ar	-2917
▁Fakat	-2918
▁Yarışması	-2919
▁Oyunları	-2920
ladığı	-2921
iyatrosu	-2922
▁türü	-2923
▁giz	-2924
ola	-2925
▁tarz	-2926
illa	-2927
iyah	-2928
▁ko	-2929
▁James	-2930
▁kurdu	-2931
▁gördü	-2932
own	-2933
adığını	-2934
▁yazı	-2935
▁Sovyetler	-2936
cisi	-2937
▁vat	-2938
▁zar	-2939
▁Arn	-2940
▁Yahudi	-2941
▁sit	-2942
uru	-2943
▁sonucunda	-2944
esindeki	-2945
ane	-2946
▁adet	-2947
istler	-2948
▁Bakanı	-2949
age	-2950
▁Yüz	-2951
▁Kilis	-2952
makta	-2953
▁Mark	-2954
▁vol	-2955
▁ziyaret	-2956
emek	-2957
▁tarihli	-2958
▁kardeşi	-2959
avi	-2960
culuk	-2961
brıs	-2962
▁başarı	-2963
çileri	-2964
▁Mir	-2965
▁futbolcudur	-2966
▁gitar	-2967
ment	-2968
▁ulusal	-2969
▁uzaklık	-2970
uluğu	-2971
▁Ord	-2972
▁dikkat	-2973
▁ederek	-2974
▁etmektedir	-2975
▁döndü	-2976
▁Windows	-2977
iforn	-2978
▁haber	-2979
▁merkezli	-2980
▁Sm	-2981
ester	-2982
▁meydana	-2983
▁Eğitim	-2984
▁hedef	-2985
▁You	-2986
▁konum	-2987
▁başlamıştır	-2988
▁yorum	-2989
masından	-2990
lanması	-2991
anlık	-2992
▁arac	-2993
iyeti	-2994
▁Pal	-2995
ılmaktadır	-2996
▁UEFA	-2997
▁Mes	-2998
▁Michael	-2999
▁yayınlanan	-3000
ilmek	-3001
▁kayb	-3002
▁Sonuçlar	-3003
▁World	-3004
▁Tom	-3005
ano	-3006
▁mer	-3007
bilir	-3008
▁yapıldı	-3009
▁Avustralya	-3010
erli	-3011
▁Bro	-3012
rag	-3013
▁turnuv	-3014
lasik	-3015
▁Wh	-3016
▁pozisyon	-3017
cuları	-3018
▁kavram	-3019
▁Tor	-3020
laması	-3021
amaz	-3022
eceğini	-3023
▁mar	-3024
▁forma	-3025
alarını	-3026
▁Mag	-3027
▁modern	-3028
ze	-3029
▁başında	-3030
▁kızı	-3031
▁derec	-3032
▁boyut	-3033
▁Şah	-3034
▁rap	-3035
▁kazanan	-3036
iter	-3037
▁kişiler	-3038
▁III	-3039
SS	-3040
▁Yahud	-3041
atistik	-3042
▁üzerinden	-3043
ence	-3044
▁Çal	-3045
alıdır	-3046
▁Cam	-3047
▁Kıbrıs	-3048
▁çalışmaları	-3049
▁zamanlar	-3050
▁öner	-3051
va	-3052
▁çevir	-3053
▁yüzyılın	-3054
▁Sah	-3055
ove	-3056
An	-3057
▁Min	-3058
▁hap	-3059
▁etmiş	-3060
▁yazarları	-3061
▁zorunda	-3062
▁bay	-3063
▁kayn	-3064
zon	-3065
▁eğit	-3066
▁işgal	-3067
ford	-3068
▁Kanada	-3069
▁ders	-3070
bon	-3071
ğıt	-3072
▁Trab	-3073
▁hayvan	-3074
▁Yard	-3075
▁Lat	-3076
▁Tun	-3077
day	-3078
▁Kons	-3079
▁Ukrayna	-3080
▁başlar	-3081
▁piyasaya	-3082
▁köken	-3083
▁yönelik	-3084
▁Rum	-3085
▁kelim	-3086
Türk	-3087
▁Christ	-3088
iden	-3089
▁sonrasında	-3090
mızı	-3091
▁gözlem	-3092
▁mahalle	-3093
▁med	-3094
cılık	-3095
tul	-3096
▁Hollanda	-3097
▁teda	-3098
▁oyunu	-3099
▁Tiyatrosu	-3100
macı	-3101
▁Rich	-3102
▁doğal	-3103
▁yana	-3104
enerbah	-3105
öm	-3106
▁hafta	-3107
▁hukuk	-3108
TV	-3109
▁Lib	-3110
//	-3111
tic	-3112
▁tekli	-3113
use	-3114
▁bilinir	-3115
▁Cor	-3116
▁Mas	-3117
olik	-3118
ily	-3119
ern	-3120
▁tas	-3121
▁Berlin	-3122
dek	-3123
olojisi	-3124
▁Muham	-3125
eyin	-3126
ilebilir	-3127
ein	-3128
▁Millet	-3129
ky	-3130
ling	-3131
urdu	-3132
▁sonrası	-3133
aspor	-3134
▁bile	-3135
▁Enstitüsü	-3136
▁milletvekilleri	-3137
ku	-3138
▁ölçü	-3139
alarının	-3140
▁hızlı	-3141
ath	-3142
▁bölümü	-3143
▁Araştır	-3144
che	-3145
://	-3146
▁çalışan	-3147
▁single	-3148
▁şiir	-3149
▁hale	-3150
ildiği	-3151
▁içerir	-3152
ott	-3153
uyordu	-3154
ocuk	-3155
▁sahn	-3156
▁War	-3157
▁di	-3158
liğinde	-3159
langıç	-3160
▁ilinin	-3161
masında	-3162
▁Portekiz	-3163
▁Hind	-3164
▁Grubu	-3165
▁Dar	-3166
ward	-3167
uth	-3168
leşme	-3169
▁fon	-3170
edeki	-3171
▁dizisi	-3172
▁Cal	-3173
mıştı	-3174
▁malz	-3175
ife	-3176
ıyordu	-3177
enerbahçe	-3178
▁Tat	-3179
▁Pap	-3180
▁Kara	-3181
▁fotoğraf	-3182
▁anal	-3183
andaş	-3184
▁Müdür	-3185
ula	-3186
▁Sür	-3187
▁Ermen	-3188
ilerine	-3189
▁elem	-3190
▁ekonomik	-3191
yu	-3192
▁geçmiş	-3193
▁itibarıyla	-3194
▁la	-3195
▁Festivali	-3196
▁belediye	-3197
şehir	-3198
▁ülkenin	-3199
ebil	-3200
ıntı	-3201
▁Hüs	-3202
▁terc	-3203
▁Lin	-3204
▁ismi	-3205
deniz	-3206
▁Meks	-3207
▁dar	-3208
üğ	-3209
▁kolay	-3210
▁popüler	-3211
▁Lu	-3212
▁Dok	-3213
▁Fat	-3214
meden	-3215
▁katkı	-3216
▁davran	-3217
ski	-3218
▁takip	-3219
▁ihtiy	-3220
▁Hareket	-3221
▁örgüt	-3222
▁eşit	-3223
▁Hük	-3224
▁iy	-3225
▁şarkıları	-3226
▁Göl	-3227
▁Kemal	-3228
▁oyuncusu	-3229
▁ticaret	-3230
▁edebiyat	-3231
ılarak	-3232
▁Del	-3233
▁Sup	-3234
say	-3235
▁Van	-3236
▁anda	-3237
▁doktor	-3238
▁seviy	-3239
SA	-3240
▁görüntü	-3241
asi	-3242
▁Ex	-3243
▁Ordu	-3244
▁düzey	-3245
▁Tok	-3246
lip	-3247
▁kendisine	-3248
▁Bill	-3249
ılabilir	-3250
▁bileş	-3251
ivil	-3252
ısının	-3253
▁söyledi	-3254
▁Gar	-3255
▁yazdığı	-3256
▁incel	-3257
bu	-3258
▁Söz	-3259
antin	-3260
alığı	-3261
▁City	-3262
▁Müslüman	-3263
do	-3264
▁Belç	-3265
üdyo	-3266
▁Kut	-3267
▁ortal	-3268
▁Sağ	-3269
▁Kulüp	-3270
▁paylaş	-3271
▁olmasına	-3272
iyel	-3273
çısı	-3274
üphan	-3275
▁Takım	-3276
▁hastalık	-3277
▁dep	-3278
▁Galat	-3279
atan	-3280
▁Thom	-3281
mada	-3282
ören	-3283
▁Bağımsız	-3284
▁İsviç	-3285
lardı	-3286
uyor	-3287
que	-3288
▁Örneğin	-3289
▁Play	-3290
▁çıkışlı	-3291
lom	-3292
eyn	-3293
uyu	-3294
avut	-3295
▁kısmı	-3296
mo	-3297
▁felsef	-3298
▁Aç	-3299
▁oluşur	-3300
▁yabancı	-3301
▁Wal	-3302
abı	-3303
▁Mem	-3304
ura	-3305
izasyon	-3306
▁tük	-3307
bat	-3308
▁Hindistan	-3309
ette	-3310
▁resmî	-3311
▁verdiği	-3312
▁Men	-3313
asaray	-3314
▁değerlendir	-3315
▁Tiyatro	-3316
▁yör	-3317
▁demir	-3318
▁Adam	-3319
rah	-3320
▁yazılım	-3321
▁birinci	-3322
▁derece	-3323
olf	-3324
ğunu	-3325
▁Nik	-3326
asıl	-3327
daş	-3328
ony	-3329
▁Bah	-3330
▁Jack	-3331
▁ih	-3332
alarına	-3333
kün	-3334
▁Fenerbahçe	-3335
▁satın	-3336
▁batı	-3337
ure	-3338
ical	-3339
▁ekip	-3340
▁yeten	-3341
ny	-3342
▁yani	-3343
▁sub	-3344
▁saha	-3345
ics	-3346
▁cumhur	-3347
▁beyaz	-3348
engin	-3349
ezi	-3350
▁Irak	-3351
▁sebep	-3352
▁ülkeler	-3353
iklet	-3354
▁Park	-3355
▁yapmak	-3356
▁performans	-3357
ax	-3358
▁Kitap	-3359
veç	-3360
ilerinin	-3361
urum	-3362
▁tasarım	-3363
▁Alex	-3364
▁George	-3365
▁Nehri	-3366
yap	-3367
▁alındı	-3368
arında	-3369
ılmaz	-3370
▁sebeb	-3371
lılık	-3372
▁doğu	-3373
ğinden	-3374
▁oluşum	-3375
▁Sy	-3376
▁akadem	-3377
eybol	-3378
▁işaret	-3379
ena	-3380
▁alarak	-3381
▁Küçük	-3382
meyen	-3383
yken	-3384
▁Op	-3385
▁kötü	-3386
▁Frank	-3387
▁taşım	-3388
▁ism	-3389
▁korum	-3390
▁mahall	-3391
eld	-3392
oni	-3393
ellow	-3394
ünist	-3395
▁olsa	-3396
▁Derneği	-3397
▁psik	-3398
▁metal	-3399
▁Gaz	-3400
▁Çocuk	-3401
layarak	-3402
ited	-3403
▁Muhammed	-3404
lament	-3405
örü	-3406
▁Gül	-3407
dal	-3408
▁Erz	-3409
anik	-3410
▁Coğrafya	-3411
ington	-3412
sch	-3413
▁vatandaş	-3414
▁alanında	-3415
▁Hır	-3416
gü	-3417
düncü	-3418
▁konser	-3419
▁kür	-3420
▁Teknik	-3421
▁telef	-3422
adi	-3423
▁Boy	-3424
▁şid	-3425
▁kı	-3426
eydi	-3427
▁parti	-3428
▁yapmış	-3429
bil	-3430
▁Hayatı	-3431
▁Trabzon	-3432
iet	-3433
▁Galatasaray	-3434
ira	-3435
▁direktörleri	-3436
▁belirli	-3437
▁ner	-3438
▁Dil	-3439
kınma	-3440
▁Topl	-3441
▁seçmen	-3442
▁mec	-3443
cistan	-3444
itt	-3445
yar	-3446
CA	-3447
ronik	-3448
▁Mosk	-3449
▁arası	-3450
edilen	-3451
dikten	-3452
▁Cr	-3453
▁Resim	-3454
mal	-3455
▁dünyanın	-3456
ahim	-3457
ool	-3458
we	-3459
▁Los	-3460
▁bunu	-3461
▁Bol	-3462
▁bilgisayar	-3463
▁Din	-3464
▁del	-3465
ati	-3466
tandart	-3467
▁We	-3468
ğret	-3469
▁beste	-3470
▁Taş	-3471
ğa	-3472
▁Bilim	-3473
ain	-3474
▁Birinci	-3475
teri	-3476
jantin	-3477
▁Siyas	-3478
▁şehrin	-3479
;"	-3480
▁üzerindeki	-3481
▁Hukuk	-3482
▁toplan	-3483
▁Muhareb	-3484
▁uygulan	-3485
▁mimar	-3486
▁yapılmıştır	-3487
▁şehri	-3488
lediği	-3489
▁milletvekili	-3490
mesiyle	-3491
▁ileri	-3492
▁imzal	-3493
▁Mik	-3494
ago	-3495
▁göl	-3496
▁Gürcistan	-3497
ene	-3498
▁Arnavut	-3499
▁değişiklik	-3500
▁Prof	-3501
▁Kurulu	-3502
lass	-3503
▁uzay	-3504
▁Konusu	-3505
akistan	-3506
▁elektrik	-3507
▁Cumhurbaş	-3508
▁istem	-3509
▁Bununla	-3510
ısız	-3511
arken	-3512
▁Seri	-3513
▁Profes	-3514
▁matematik	-3515
▁istedi	-3516
▁ressam	-3517
▁komp	-3518
▁maçında	-3519
▁Lou	-3520
nes	-3521
nu	-3522
▁cins	-3523
▁Resmi	-3524
▁para	-3525
ğe	-3526
los	-3527
▁Cez	-3528
▁Erkek	-3529
isinden	-3530
▁("	-3531
çak	-3532
▁Gürcü	-3533
▁Kuvvetleri	-3534
▁maçı	-3535
sim	-3536
▁Record	-3537
▁sağlamak	-3538
▁Universit	-3539
▁kişinin	-3540
go	-3541
▁by	-3542
▁Yayınları	-3543
▁Div	-3544
yse	-3545
▁Jean	-3546
▁çünkü	-3547
▁Vak	-3548
imark	-3549
▁bölge	-3550
▁Buna	-3551
fa	-3552
alara	-3553
▁Peter	-3554
▁artık	-3555
lukla	-3556
▁Okulu	-3557
umb	-3558
ıf	-3559
▁Charles	-3560
▁Küt	-3561
astik	-3562
▁doğrudan	-3563
tiğini	-3564
▁hesap	-3565
erkes	-3566
▁sim	-3567
▁ayır	-3568
▁veri	-3569
▁mit	-3570
▁cihaz	-3571
▁Hava	-3572
▁Öl	-3573
▁prot	-3574
▁tahmin	-3575
▁tav	-3576
▁bölgesinde	-3577
▁geleneksel	-3578
▁Ana	-3579
alim	-3580
▁tat	-3581
ırlar	-3582
elt	-3583
▁Kıs	-3584
▁çalışma	-3585
▁Beşik	-3586
▁Feder	-3587
uri	-3588
egor	-3589
▁canlı	-3590
ko	-3591
▁tanrı	-3592
▁kurtar	-3593
▁dağıt	-3594
▁ip	-3595
▁hücr	-3596
▁adına	-3597
▁kullanıcı	-3598
bert	-3599
▁indir	-3600
amaktadır	-3601
▁ölçüde	-3602
gisi	-3603
ırken	-3604
lidir	-3605
▁komedi	-3606
erler	-3607
oft	-3608
▁Jon	-3609
▁Akademisi	-3610
▁İnsan	-3611
lıklı	-3612
dıktan	-3613
▁satış	-3614
▁ant	-3615
▁Günümüz	-3616
iplom	-3617
bey	-3618
▁ilçe	-3619
▁mühendis	-3620
asındaki	-3621
ksiyon	-3622
▁polis	-3623
▁Akdeniz	-3624
ayi	-3625
ekten	-3626
▁defa	-3627
▁Sak	-3628
▁yazdı	-3629
liğe	-3630
▁enerji	-3631
mayan	-3632
▁yerleştir	-3633
maktaydı	-3634
▁hikây	-3635
▁List	-3636
▁vokal	-3637
▁müm	-3638
ündeki	-3639
▁Norveç	-3640
arr	-3641
▁Pop	-3642
▁karşılık	-3643
ukarı	-3644
▁Güneş	-3645
▁Göz	-3646
▁öne	-3647
▁Da	-3648
▁miktar	-3649
▁gurbetçiler	-3650
gusal	-3651
▁Burada	-3652
▁kendini	-3653
▁İsk	-3654
çesi	-3655
ınca	-3656
▁kop	-3657
▁Comp	-3658
ato	-3659
▁bomb	-3660
▁mens	-3661
▁Moskova	-3662
▁Devleti	-3663
▁halinde	-3664
TA	-3665
▁Müzesi	-3666
▁civ	-3667
▁Sab	-3668
▁Demokratik	-3669
▁kons	-3670
▁Ede	-3671
▁birey	-3672
nan	-3673
▁iken	-3674
▁bahs	-3675
nam	-3676
▁kanıt	-3677
▁kitabı	-3678
▁Air	-3679
etim	-3680
ğına	-3681
▁dem	-3682
isyonu	-3683
brahim	-3684
▁eylem	-3685
▁Danimark	-3686
▁ordus	-3687
▁şirketi	-3688
▁arkadaşı	-3689
▁Başbak	-3690
▁Beşiktaş	-3691
▁Kalkınma	-3692
▁Pas	-3693
aktadır	-3694
▁Ekonom	-3695
▁Alan	-3696
▁öğretim	-3697
▁lisans	-3698
▁Def	-3699
▁Ermeni	-3700
oru	-3701
larındaki	-3702
hat	-3703
▁von	-3704
ys	-3705
▁Richard	-3706
▁karşısında	-3707
▁plat	-3708
▁Sezon	-3709
İngil	-3710
▁kariyerine	-3711
▁Sey	-3712
idi	-3713
mann	-3714
▁Jul	-3715
laşması	-3716
elerinden	-3717
esidir	-3718
iller	-3719
lenmesi	-3720
▁Arjantin	-3721
▁min	-3722
▁test	-3723
lığa	-3724
▁Sü	-3725
altı	-3726
▁mümkün	-3727
▁Kaliforn	-3728
▁bağlantı	-3729
bur	-3730
▁kesin	-3731
amadı	-3732
")	-3733
▁sandık	-3734
▁fir	-3735
▁Ken	-3736
▁Saint	-3737
▁araştırma	-3738
▁Çok	-3739
▁CO	-3740
lad	-3741
▁şiddet	-3742
▁açı	-3743
ix	-3744
▁Çev	-3745
▁Güven	-3746
▁dönemi	-3747
üme	-3748
▁erken	-3749
▁Kir	-3750
ndaki	-3751
▁süreç	-3752
▁dünyaya	-3753
▁kök	-3754
▁eg	-3755
▁Dur	-3756
▁gösterir	-3757
meleri	-3758
ora	-3759
▁tartış	-3760
▁nerede	-3761
▁kurulmuştur	-3762
▁sürekli	-3763
▁Web	-3764
isidir	-3765
çu	-3766
▁Ameri	-3767
yellow	-3768
▁sok	-3769
▁Tal	-3770
ail	-3771
lıkla	-3772
▁Tab	-3773
▁yönettiği	-3774
▁koşul	-3775
ux	-3776
ınar	-3777
▁şarkısı	-3778
▁Belediyesi	-3779
lanma	-3780
ört	-3781
inler	-3782
▁zengin	-3783
▁Kaliforniya	-3784
▁Lisesi	-3785
ors	-3786
▁Po	-3787
▁yüzey	-3788
no	-3789
▁altına	-3790
▁Milliyet	-3791
ever	-3792
▁Var	-3793
▁yoluyla	-3794
ülü	-3795
▁sahne	-3796
▁Kadınlar	-3797
▁sekiz	-3798
▁açıkladı	-3799
afer	-3800
▁tarihleri	-3801
▁yum	-3802
▁kasab	-3803
▁Bölgesi	-3804
▁Beyaz	-3805
▁Black	-3806
▁Press	-3807
BC	-3808
▁etmeye	-3809
▁University	-3810
▁str	-3811
itz	-3812
▁hip	-3813
rich	-3814
▁kullanarak	-3815
▁senar	-3816
RT	-3817
ilt	-3818
▁kendisi	-3819
▁Komut	-3820
ekret	-3821
yordu	-3822
ban	-3823
▁General	-3824
mon	-3825
ijinal	-3826
▁birleştir	-3827
▁+	-3828
▁mas	-3829
ett	-3830
▁otur	-3831
▁sayesinde	-3832
▁stat	-3833
▁Yo	-3834
ağa	-3835
▁Bank	-3836
▁ortam	-3837
▁dışı	-3838
▁edilmektedir	-3839
▁soğ	-3840
deri	-3841
▁donan	-3842
▁odak	-3843
▁bakım	-3844
▁özgür	-3845
▁durumu	-3846
off	-3847
▁sunu	-3848
ies	-3849
▁başkenti	-3850
▁basın	-3851
▁Şirket	-3852
▁Krallığı	-3853
▁buz	-3854
▁lim	-3855
▁ordusu	-3856
▁Ordusu	-3857
car	-3858
▁vur	-3859
▁normal	-3860
▁yerini	-3861
▁Üniversitesinde	-3862
ima	-3863
▁Plan	-3864
▁fak	-3865
▁Franc	-3866
▁yılının	-3867
cileri	-3868
▁ab	-3869
▁nasıl	-3870
▁internet	-3871
▁Kaf	-3872
▁Ha	-3873
▁Bos	-3874
▁pil	-3875
pt	-3876
▁sağlar	-3877
▁pr	-3878
▁Tanrı	-3879
▁kişilik	-3880
ole	-3881
▁Uzun	-3882
ech	-3883
▁yeri	-3884
▁Meclisi	-3885
▁siyah	-3886
▁yoktur	-3887
▁ht	-3888
▁ışık	-3889
▁sporcular	-3890
ult	-3891
acılık	-3892
▁Yıldız	-3893
▁Maç	-3894
line	-3895
▁Gö	-3896
▁CHP	-3897
▁bugün	-3898
▁annesi	-3899
▁eşi	-3900
▁başbak	-3901
ağan	-3902
▁devr	-3903
ala	-3904
ahraman	-3905
▁Sat	-3906
abrik	-3907
▁http	-3908
gul	-3909
amb	-3910
▁konusu	-3911
eliği	-3912
▁Brezilya	-3913
izce	-3914
landalı	-3915
▁Records	-3916
lub	-3917
▁du	-3918
▁Belediye	-3919
▁gaz	-3920
▁görevi	-3921
MS	-3922
▁Ort	-3923
▁ah	-3924
▁val	-3925
aden	-3926
▁telefon	-3927
tip	-3928
▁etkili	-3929
▁Pe	-3930
▁günümüzde	-3931
▁sayım	-3932
tifak	-3933
▁ac	-3934
başı	-3935
▁çoğ	-3936
▁dolay	-3937
▁sorumlu	-3938
▁Flor	-3939
ullah	-3940
▁şehirler	-3941
▁stüdyo	-3942
▁King	-3943
▁Love	-3944
▁ham	-3945
tain	-3946
ükle	-3947
ks	-3948
▁vak	-3949
▁gösteren	-3950
▁tercih	-3951
▁İbrahim	-3952
▁Hasan	-3953
▁Yas	-3954
menin	-3955
gun	-3956
▁To	-3957
üstü	-3958
sine	-3959
rid	-3960
▁öncesi	-3961
▁ef	-3962
▁Sil	-3963
▁durumda	-3964
abilecek	-3965
mekte	-3966
▁radyo	-3967
▁pazar	-3968
▁mon	-3969
mişti	-3970
ald	-3971
▁tutuk	-3972
▁grupları	-3973
▁kapat	-3974
▁korun	-3975
▁Geçersiz	-3976
▁kg	-3977
▁Edebiyat	-3978
▁fonksiyon	-3979
▁Dir	-3980
▁müziği	-3981
▁Britanya	-3982
▁orijinal	-3983
atürk	-3984
lâ	-3985
liğine	-3986
kim	-3987
▁yayınladı	-3988
▁Katolik	-3989
isiklet	-3990
▁des	-3991
sur	-3992
▁derin	-3993
▁atan	-3994
▁Angeles	-3995
any	-3996
▁Cel	-3997
▁Do	-3998
eter	-3999
rap	-4000
▁Video	-4001
▁aracılığı	-4002
çisi	-4003
▁te	-4004
▁adında	-4005
▁İsviçre	-4006
adir	-4007
▁kuşat	-4008
▁İskoç	-4009
▁azal	-4010
köy	-4011
▁kendisini	-4012
▁uçuş	-4013
▁aktiv	-4014
ón	-4015
madı	-4016
▁Kürt	-4017
▁terk	-4018
by	-4019
▁yenil	-4020
▁Böylece	-4021
▁malzem	-4022
▁kamu	-4023
▁Gi	-4024
aki	-4025
uman	-4026
▁Far	-4027
▁Kend	-4028
▁aşam	-4029
ander	-4030
▁Sun	-4031
don	-4032
▁taşıyan	-4033
▁ayrıldı	-4034
▁yayımlanan	-4035
▁Tour	-4036
▁Aydın	-4037
▁Gazet	-4038
▁Eş	-4039
OS	-4040
▁Hırvat	-4041
▁geçirdi	-4042
▁yolu	-4043
▁Mich	-4044
jen	-4045
aff	-4046
illi	-4047
▁açıklam	-4048
osy	-4049
▁aktif	-4050
asya	-4051
▁Haç	-4052
▁Thomas	-4053
ID	-4054
ğinin	-4055
▁çocuğu	-4056
pek	-4057
En	-4058
▁Yay	-4059
▁belediy	-4060
mel	-4061
▁şar	-4062
▁etraf	-4063
▁tarım	-4064
lında	-4065
lığın	-4066
▁yasak	-4067
dikleri	-4068
▁yapımcı	-4069
▁olacak	-4070
üny	-4071
ekâ	-4072
▁cam	-4073
▁onay	-4074
▁bal	-4075
leyman	-4076
▁Grand	-4077
▁orman	-4078
▁yedi	-4079
▁Red	-4080
▁bölgede	-4081
▁Cami	-4082
▁yönetimi	-4083
▁kaf	-4084
stein	-4085
ect	-4086
▁eğitimi	-4087
▁etkilen	-4088
üyor	-4089
▁sap	-4090
aceae	-4091
rafik	-4092
▁diye	-4093
▁Tah	-4094
▁kategor	-4095
▁oda	-4096
kiler	-4097
▁uzaklıktadır	-4098
▁diplom	-4099
▁ruh	-4100
▁Tw	-4101
blem	-4102
ase	-4103
▁aktar	-4104
so	-4105
▁All	-4106
alandı	-4107
lılar	-4108
able	-4109
▁Ast	-4110
▁oynanan	-4111
▁Abd	-4112
rosoft	-4113
▁dans	-4114
▁Il	-4115
▁açısından	-4116
amet	-4117
▁etkinlik	-4118
▁yönetic	-4119
cılar	-4120
▁Mek	-4121
▁kah	-4122
▁diy	-4123
ese	-4124
▁baskı	-4125
▁güc	-4126
tadan	-4127
anış	-4128
tis	-4129
▁aile	-4130
▁Yaşamı	-4131
▁Sistem	-4132
▁kazanmıştır	-4133
▁gitti	-4134
▁standart	-4135
▁Belçika	-4136
imiz	-4137
▁etkisi	-4138
▁Yılın	-4139
▁şarkılar	-4140
rat	-4141
apın	-4142
▁Oper	-4143
▁yazarlar	-4144
▁Antik	-4145
arlı	-4146
nü	-4147
çev	-4148
▁süren	-4149
way	-4150
▁Eli	-4151
▁kurulmuş	-4152
▁Meksika	-4153
▁Sırp	-4154
tılı	-4155
dit	-4156
▁Dol	-4157
▁Andre	-4158
ois	-4159
elli	-4160
▁attı	-4161
▁yapılır	-4162
acık	-4163
▁Proj	-4164
▁resim	-4165
▁hayatını	-4166
vin	-4167
▁Tam	-4168
etin	-4169
sar	-4170
▁yapılmış	-4171
▁işlev	-4172
▁İt	-4173
▁Prens	-4174
▁Adaylık	-4175
▁Li	-4176
▁Kuş	-4177
▁kalı	-4178
▁Slov	-4179
▁neredeyse	-4180
▁madalyalı	-4181
▁alg	-4182
▁Lev	-4183
▁Bit	-4184
▁Liga	-4185
▁Max	-4186
▁Elekt	-4187
▁aranan	-4188
▁Kab	-4189
▁Açık	-4190
▁Microsoft	-4191
▁hep	-4192
▁söylem	-4193
raz	-4194
yasal	-4195
oth	-4196
▁kayded	-4197
▁Naz	-4198
▁inc	-4199
▁kaydet	-4200
▁Haned	-4201
▁İdar	-4202
▁grubun	-4203
▁Atatürk	-4204
▁artır	-4205
lıca	-4206
▁gök	-4207
▁United	-4208
▁Üy	-4209
▁oluşturul	-4210
▁şarkıcıları	-4211
▁Süleyman	-4212
▁hakim	-4213
yolu	-4214
▁dini	-4215
▁Star	-4216
▁üc	-4217
iro	-4218
hane	-4219
▁kıyı	-4220
▁Biy	-4221
▁Dis	-4222
▁onları	-4223
▁do	-4224
tuğu	-4225
▁duvar	-4226
▁Macaristan	-4227
▁Eyalet	-4228
▁düşünül	-4229
▁Anton	-4230
▁Selç	-4231
▁almak	-4232
▁Nob	-4233
▁hayatı	-4234
▁rock	-4235
▁Muharebesi	-4236
udu	-4237
▁diren	-4238
▁bölümünde	-4239
▁yavaş	-4240
▁men	-4241
▁çıkmıştır	-4242
▁Rock	-4243
▁gelmiştir	-4244
▁bilimsel	-4245
▁teslim	-4246
▁Zaman	-4247
▁Ur	-4248
ball	-4249
▁ücret	-4250
ele	-4251
St	-4252
▁Hüseyin	-4253
▁Ta	-4254
oslav	-4255
▁böylece	-4256
▁oran	-4257
▁İrlanda	-4258
▁kans	-4259
▁doğum	-4260
▁tamamladı	-4261
▁Siv	-4262
▁ettir	-4263
▁with	-4264
▁bazen	-4265
▁Hint	-4266
gre	-4267
▁dili	-4268
▁Bursa	-4269
▁açtı	-4270
▁kısım	-4271
oug	-4272
▁ref	-4273
▁Sw	-4274
▁Ren	-4275
▁öğretmen	-4276
ipp	-4277
▁müzisyen	-4278
ero	-4279
malı	-4280
▁Eser	-4281
▁Henry	-4282
▁endü	-4283
▁atandı	-4284
▁kullanılmıştır	-4285
lıklar	-4286
aşık	-4287
▁West	-4288
▁dördüncü	-4289
wood	-4290
▁App	-4291
▁Başkanlığı	-4292
ğından	-4293
zi	-4294
▁başrol	-4295
▁sürüm	-4296
▁Kariyeri	-4297
liler	-4298
▁Fre	-4299
▁bölgesi	-4300
SK	-4301
▁sırasıyla	-4302
▁NA	-4303
▁mesaf	-4304
▁belde	-4305
idro	-4306
▁fam	-4307
▁Tic	-4308
ope	-4309
▁Vic	-4310
mail	-4311
▁öy	-4312
▁söyler	-4313
his	-4314
▁Yen	-4315
▁heykel	-4316
▁aracılığıyla	-4317
▁yıllar	-4318
▁birim	-4319
nün	-4320
ubu	-4321
▁Kilisesi	-4322
▁düşman	-4323
▁Konseyi	-4324
▁Hor	-4325
▁Nat	-4326
▁ic	-4327
▁pan	-4328
▁İb	-4329
▁mutf	-4330
kır	-4331
▁makin	-4332
▁sağlayan	-4333
vik	-4334
cus	-4335
▁filmin	-4336
▁Diy	-4337
▁oluşturur	-4338
İngilizce	-4339
olis	-4340
oyun	-4341
▁Başarı	-4342
▁müs	-4343
▁ağaç	-4344
▁girişim	-4345
▁hastan	-4346
▁götür	-4347
▁verilmiştir	-4348
▁arka	-4349
▁)	-4350
▁dönüştür	-4351
abet	-4352
▁(),	-4353
arlığı	-4354
text	-4355
▁şun	-4356
▁olmadığı	-4357
▁aşağıdaki	-4358
▁alınan	-4359
▁Kn	-4360
▁gezeg	-4361
ademi	-4362
▁kırmızı	-4363
▁dek	-4364
▁finalde	-4365
▁insanları	-4366
▁başlarında	-4367
ome	-4368
birliği	-4369
stantin	-4370
▁Bulgaristan	-4371
▁Arab	-4372
▁Boğ	-4373
▁Cap	-4374
▁Oğ	-4375
oğol	-4376
▁Sem	-4377
▁bulunmuştur	-4378
mp	-4379
▁sivil	-4380
cy	-4381
▁balık	-4382
oto	-4383
▁gizli	-4384
▁Antal	-4385
▁denk	-4386
tepe	-4387
isa	-4388
▁cm	-4389
▁mm	-4390
▁rast	-4391
emiştir	-4392
▁kural	-4393
▁ailesi	-4394
▁sanatçıları	-4395
irler	-4396
▁görülür	-4397
lec	-4398
dat	-4399
iti	-4400
ayıf	-4401
▁enerj	-4402
▁bölün	-4403
▁Hist	-4404
isti	-4405
ebek	-4406
ucusu	-4407
▁Martin	-4408
▁kod	-4409
ater	-4410
kes	-4411
▁Ag	-4412
▁muhtem	-4413
▁lideri	-4414
ates	-4415
▁Est	-4416
▁kurucu	-4417
▁kullanımı	-4418
▁Ob	-4419
bek	-4420
▁Hot	-4421
ındır	-4422
▁atlet	-4423
düğü	-4424
▁askerî	-4425
▁kökenli	-4426
▁Ölüm	-4427
▁isyan	-4428
▁yapmaktadır	-4429
▁sıral	-4430
▁Demokrat	-4431
▁kullanıldı	-4432
▁almış	-4433
▁içindeki	-4434
▁Bon	-4435
▁klasik	-4436
ağın	-4437
ić	-4438
▁Gro	-4439
▁Plat	-4440
doğu	-4441
▁şöyle	-4442
bar	-4443
anak	-4444
▁yetiştir	-4445
igh	-4446
▁ödülü	-4447
▁kara	-4448
ekteydi	-4449
▁sembol	-4450
▁çapında	-4451
▁uzman	-4452
▁Erzurum	-4453
▁giren	-4454
▁çizgi	-4455
▁prof	-4456
▁mekt	-4457
▁best	-4458
▁Trans	-4459
▁güvenlik	-4460
vey	-4461
▁Lee	-4462
araj	-4463
▁yüzden	-4464
liğin	-4465
ric	-4466
▁şarkıcılar	-4467
imini	-4468
olek	-4469
ijital	-4470
▁karış	-4471
bin	-4472
▁otomobil	-4473
▁Karş	-4474
▁bl	-4475
▁()	-4476
▁Eng	-4477
▁Kah	-4478
▁sav	-4479
astır	-4480
▁ila	-4481
iver	-4482
▁tehlik	-4483
▁mevcuttur	-4484
▁buna	-4485
elerden	-4486
pet	-4487
▁başlangıç	-4488
▁Kralı	-4489
▁x	-4490
▁Vir	-4491
▁serg	-4492
▁Mu	-4493
▁ortalama	-4494
imli	-4495
▁akım	-4496
%;	-4497
ella	-4498
▁özellikleri	-4499
kale	-4500
▁olduğuna	-4501
▁unvan	-4502
mut	-4503
att	-4504
abilen	-4505
ılış	-4506
▁Türkç	-4507
lanmaktadır	-4508
cılı	-4509
▁çoğunlukla	-4510
TP	-4511
lili	-4512
dağ	-4513
▁meş	-4514
▁Şey	-4515
▁{	-4516
iyade	-4517
▁Program	-4518
omen	-4519
▁kapas	-4520
▁tanış	-4521
▁altyap	-4522
SP	-4523
▁başlamış	-4524
▁benim	-4525
▁depr	-4526
▁Ref	-4527
▁kup	-4528
▁davranış	-4529
▁ikti	-4530
▁geçiş	-4531
);	-4532
doğan	-4533
▁hala	-4534
▁Super	-4535
▁Karak	-4536
▁sağlık	-4537
▁mül	-4538
▁Aşağı	-4539
ild	-4540
insel	-4541
▁Bölümü	-4542
▁Fri	-4543
▁SK	-4544
bistan	-4545
▁yapılar	-4546
▁Moğol	-4547
▁rahat	-4548
▁Mün	-4549
▁defn	-4550
▁barış	-4551
▁Des	-4552
▁istif	-4553
lış	-4554
▁pozisyonunda	-4555
▁Hükûmet	-4556
▁rolü	-4557
▁istasyon	-4558
▁şehrinde	-4559
lop	-4560
▁Yeşil	-4561
▁hafif	-4562
▁Stev	-4563
ayla	-4564
▁antik	-4565
▁Intern	-4566
lıkları	-4567
▁başarısız	-4568
▁Net	-4569
▁günlük	-4570
▁üretilen	-4571
▁muhareb	-4572
ısal	-4573
▁gece	-4574
▁sınıflandır	-4575
osa	-4576
elle	-4577
rit	-4578
lup	-4579
".	-4580
arch	-4581
isiyle	-4582
leyici	-4583
▁dakik	-4584
▁çab	-4585
teş	-4586
▁arab	-4587
▁Maked	-4588
▁edilmesi	-4589
▁köş	-4590
▁durdur	-4591
▁araya	-4592
▁seri	-4593
▁Pers	-4594
▁mezar	-4595
▁Fu	-4596
▁Kent	-4597
▁basketbolcuları	-4598
gileri	-4599
ecektir	-4600
over	-4601
▁yazılan	-4602
memiş	-4603
deli	-4604
▁ır	-4605
▁sınırları	-4606
ube	-4607
dıkları	-4608
▁geçer	-4609
▁kalın	-4610
▁yerde	-4611
▁programı	-4612
▁Modern	-4613
▁Notlar	-4614
▁kaynağı	-4615
▁Meclis	-4616
▁görevini	-4617
▁Niş	-4618
▁vermiştir	-4619
ıb	-4620
▁rapor	-4621
▁Televizyon	-4622
ning	-4623
▁Dışişleri	-4624
▁Jac	-4625
▁Doktor	-4626
▁oynadığı	-4627
▁ilgi	-4628
▁yurt	-4629
emiş	-4630
▁çekir	-4631
ehrin	-4632
▁astr	-4633
▁Günümüzde	-4634
▁Ker	-4635
▁Danimarka	-4636
▁istatistik	-4637
▁Ün	-4638
▁Yardım	-4639
▁Ge	-4640
▁Stad	-4641
▁takımında	-4642
▁Milletler	-4643
▁Profesyonel	-4644
▁kentinde	-4645
istin	-4646
▁platform	-4647
▁Milliyetçi	-4648
Oy	-4649
mit	-4650
▁Ph	-4651
ılımı	-4652
▁kış	-4653
▁Kart	-4654
▁Diz	-4655
▁birinc	-4656
âh	-4657
mos	-4658
osta	-4659
▁Kiş	-4660
▁düzenlem	-4661
▁sağladı	-4662
oli	-4663
▁araştırmalar	-4664
▁ticari	-4665
▁Tıp	-4666
geç	-4667
▁kaybetti	-4668
▁topluluk	-4669
▁Akademi	-4670
▁öldürül	-4671
▁adamı	-4672
▁ide	-4673
vis	-4674
▁kültürel	-4675
▁denir	-4676
ja	-4677
▁Mit	-4678
▁One	-4679
▁Abdül	-4680
ave	-4681
▁Mey	-4682
▁sur	-4683
▁ters	-4684
tel	-4685
....	-4686
Am	-4687
▁Dağı	-4688
lon	-4689
liy	-4690
▁kum	-4691
▁Bilg	-4692
▁Cer	-4693
▁Araştırma	-4694
▁Tür	-4695
▁cid	-4696
fı	-4697
vanlar	-4698
▁voleybol	-4699
▁olmadığını	-4700
tesi	-4701
▁Nazi	-4702
lığında	-4703
▁Fir	-4704
▁Komisyonu	-4705
ses	-4706
▁diş	-4707
▁gec	-4708
▁Kısa	-4709
)'	-4710
▁yükseldi	-4711
▁AK	-4712
▁ihtiyaç	-4713
▁hiss	-4714
aket	-4715
▁ıs	-4716
amik	-4717
▁Hitler	-4718
▁zayıf	-4719
▁cinsel	-4720
▁düşünc	-4721
▁anim	-4722
▁hükümdar	-4723
▁basit	-4724
▁Soci	-4725
batı	-4726
▁Birlik	-4727
orf	-4728
ush	-4729
adde	-4730
▁Haf	-4731
ütte	-4732
luğunda	-4733
▁seçimleri	-4734
▁ediyor	-4735
▁Düz	-4736
ava	-4737
▁Wash	-4738
▁insanların	-4739
idge	-4740
ukat	-4741
▁yemek	-4742
▁Özellikle	-4743
▁Bin	-4744
▁Champ	-4745
▁yaşadığı	-4746
▁fin	-4747
▁Üst	-4748
▁göstermektedir	-4749
▁no	-4750
▁IV	-4751
▁başta	-4752
▁sektör	-4753
▁Yerel	-4754
▁ilgilen	-4755
bas	-4756
▁şirketleri	-4757
▁Karab	-4758
▁olma	-4759
▁Komünist	-4760
ings	-4761
▁ilişkin	-4762
▁hükûmeti	-4763
▁mahk	-4764
▁yayımlandı	-4765
dy	-4766
▁üye	-4767
tep	-4768
▁Ve	-4769
▁şim	-4770
alarından	-4771
▁Basketbol	-4772
▁etme	-4773
▁içine	-4774
▁tören	-4775
rad	-4776
▁Lit	-4777
www	-4778
▁bazıları	-4779
laşma	-4780
abak	-4781
▁Federasyonu	-4782
▁yakal	-4783
▁Mühendis	-4784
▁cumhurbaş	-4785
▁şirketler	-4786
ıza	-4787
uzu	-4788
▁Dal	-4789
ii	-4790
▁Yarı	-4791
▁eriş	-4792
▁gelmektedir	-4793
▁Roy	-4794
▁hatta	-4795
▁sabit	-4796
▁teklif	-4797
▁Yönetim	-4798
maşık	-4799
▁egemen	-4800
▁Şampiyonlar	-4801
rimi	-4802
▁NBA	-4803
cilik	-4804
▁fiziksel	-4805
edeni	-4806
▁Bunlar	-4807
▁belirtti	-4808
FC	-4809
▁mac	-4810
▁ayrıl	-4811
ederal	-4812
iğ	-4813
ugoslav	-4814
▁Joseph	-4815
wa	-4816
▁mu	-4817
sak	-4818
▁Çift	-4819
ediği	-4820
okrat	-4821
▁talep	-4822
▁yaptır	-4823
▁Düş	-4824
▁Adana	-4825
▁insanı	-4826
board	-4827
cil	-4828
rix	-4829
▁ta	-4830
▁dolar	-4831
abor	-4832
lenme	-4833
mur	-4834
▁Zel	-4835
ition	-4836
▁sürec	-4837
kal	-4838
mesinden	-4839
▁Konstantin	-4840
▁Erkekler	-4841
ism	-4842
▁orada	-4843
▁hen	-4844
▁Doğru	-4845
▁Les	-4846
tuluş	-4847
yr	-4848
▁Na	-4849
▁Dep	-4850
eyle	-4851
▁Efendi	-4852
▁ib	-4853
▁tor	-4854
▁aşırı	-4855
ikalı	-4856
▁gösterdi	-4857
▁Romanya	-4858
tren	-4859
▁başv	-4860
üttefik	-4861
▁ölümünden	-4862
▁reddet	-4863
▁ulaştı	-4864
▁Enter	-4865
▁ilçesinde	-4866
▁Savun	-4867
FE	-4868
▁Ban	-4869
▁Rol	-4870
▁coğraf	-4871
ısıt	-4872
▁sayılı	-4873
▁azalt	-4874
▁Pic	-4875
▁Balık	-4876
kol	-4877
▁gücü	-4878
▁Washington	-4879
▁Off	-4880
▁fikir	-4881
▁listesinde	-4882
▁köpr	-4883
▁ann	-4884
adalı	-4885
▁gerekli	-4886
lish	-4887
lie	-4888
▁Ama	-4889
▁Louis	-4890
▁vir	-4891
▁pas	-4892
▁yarar	-4893
▁sert	-4894
▁Nap	-4895
▁Özgür	-4896
▁Ba	-4897
atür	-4898
ake	-4899
▁kilomet	-4900
▁İsmail	-4901
uss	-4902
▁oluşturan	-4903
▁from	-4904
▁Of	-4905
ılıç	-4906
▁Pl	-4907
▁yapısı	-4908
▁Venedik	-4909
▁kullanan	-4910
ls	-4911
▁Samsun	-4912
▁kişisel	-4913
▁Day	-4914
ila	-4915
▁güneş	-4916
▁takımın	-4917
led	-4918
ükleer	-4919
▁ülkede	-4920
▁ku	-4921
ilin	-4922
▁pot	-4923
ven	-4924
▁evlendi	-4925
ér	-4926
right	-4927
espor	-4928
▁Güzel	-4929
▁sanatçısı	-4930
▁Emir	-4931
▁Kulüb	-4932
▁tanı	-4933
vir	-4934
layıcı	-4935
yetik	-4936
▁not	-4937
▁Lo	-4938
miyor	-4939
▁eseri	-4940
▁fabrik	-4941
ilyalı	-4942
▁makal	-4943
ref	-4944
▁galib	-4945
▁Ermenistan	-4946
▁ilişkileri	-4947
otik	-4948
▁Cup	-4949
onyalı	-4950
▁sebebiyle	-4951
kop	-4952
▁saf	-4953
▁Silah	-4954
vanya	-4955
▁Murat	-4956
mamış	-4957
▁ton	-4958
▁dönemin	-4959
▁bilinmektedir	-4960
▁kabil	-4961
▁oluşumlar	-4962
ğretim	-4963
▁Francis	-4964
▁getirdi	-4965
culu	-4966
erçev	-4967
ello	-4968
▁akıl	-4969
ulları	-4970
▁Blu	-4971
▁Müdürlüğü	-4972
▁kararı	-4973
▁hakları	-4974
▁alanda	-4975
Rus	-4976
▁rö	-4977
▁Dönem	-4978
ternatif	-4979
▁filminde	-4980
án	-4981
▁Dom	-4982
▁kendine	-4983
lerce	-4984
▁çatışmalar	-4985
opa	-4986
▁arada	-4987
eff	-4988
▁küm	-4989
osunu	-4990
▁kralı	-4991
ike	-4992
▁Bilimler	-4993
▁ölmüştür	-4994
lıdır	-4995
▁Nev	-4996
▁harf	-4997
▁Sağlık	-4998
imin	-4999
ugh	-5000
▁‘	-5001
▁Camii	-5002
▁yere	-5003
cer	-5004
mür	-5005
yüz	-5006
▁Hem	-5007
▁etmesi	-5008
▁sonlarında	-5009
▁cis	-5010
||||	-5011
▁tıp	-5012
▁rüt	-5013
▁Premi	-5014
▁Nur	-5015
▁civarında	-5016
▁genişlet	-5017
▁yanlış	-5018
ıyı	-5019
▁Sinema	-5020
▁Music	-5021
▁It	-5022
▁içeri	-5023
▁Sırbistan	-5024
▁yapar	-5025
urgu	-5026
▁Ahmed	-5027
▁süt	-5028
▁iletişim	-5029
▁problem	-5030
▁etnik	-5031
▁çağr	-5032
lendiği	-5033
▁çalışmaya	-5034
▁buldu	-5035
▁Yugoslav	-5036
▁getirildi	-5037
adeniz	-5038
tıkları	-5039
▁Cumhurbaşkanı	-5040
▁katılan	-5041
ırh	-5042
▁Real	-5043
▁Mehmed	-5044
▁Ir	-5045
▁muhal	-5046
ülebilir	-5047
▁öldürüldü	-5048
▁arke	-5049
▁American	-5050
▁Ka	-5051
;"|	-5052
▁Anay	-5053
▁müdür	-5054
elendir	-5055
mesinin	-5056
▁dramatik	-5057
şu	-5058
▁belli	-5059
▁yapımcısı	-5060
▁milyar	-5061
▁savunma	-5062
▁Kanadalı	-5063
▁Kel	-5064
▁kanun	-5065
▁Ul	-5066
ozof	-5067
▁şart	-5068
ansa	-5069
▁Gümüş	-5070
▁CD	-5071
▁müda	-5072
▁yapmaya	-5073
▁Mut	-5074
yer	-5075
▁Fransızca	-5076
▁gerektir	-5077
▁hapis	-5078
AR	-5079
▁Sor	-5080
▁Inter	-5081
etti	-5082
▁Finland	-5083
▁zarar	-5084
▁sağlam	-5085
)"	-5086
▁Gol	-5087
emli	-5088
▁Ray	-5089
▁endüstr	-5090
▁güzel	-5091
▁Edward	-5092
▁Kardeş	-5093
▁kullandı	-5094
ğünü	-5095
▁bozuk	-5096
▁filmde	-5097
▁adlandırılan	-5098
▁olas	-5099
▁sürdü	-5100
▁prens	-5101
lığının	-5102
▁Parlament	-5103
ulur	-5104
▁Cat	-5105
edildi	-5106
▁senary	-5107
ico	-5108
▁Oyuncular	-5109
▁yetk	-5110
kanlığı	-5111
ikal	-5112
▁gerekir	-5113
▁yatır	-5114
▁dokuz	-5115
▁başardı	-5116
▁olduğundan	-5117
▁seçimlerinde	-5118
ges	-5119
▁Sitesi	-5120
▁Türkmen	-5121
fat	-5122
▁ilişkiler	-5123
▁Filmografi	-5124
▁Ep	-5125
▁iyil	-5126
ien	-5127
▁Kafk	-5128
▁görülen	-5129
▁Adası	-5130
▁verilir	-5131
örf	-5132
▁National	-5133
▁Aj	-5134
ower	-5135
▁bor	-5136
ebi	-5137
▁Aug	-5138
▁kart	-5139
rip	-5140
abileceği	-5141
▁Vik	-5142
ilme	-5143
▁Kos	-5144
▁plak	-5145
NE	-5146
▁Alp	-5147
▁Miss	-5148
▁metin	-5149
In	-5150
▁yaparak	-5151
▁çekilmiş	-5152
oo	-5153
chi	-5154
▁danış	-5155
▁etkileş	-5156
▁hakkı	-5157
tral	-5158
▁Tep	-5159
▁Karadeniz	-5160
▁esas	-5161
▁net	-5162
▁üstün	-5163
inç	-5164
▁nüfusunun	-5165
▁Mary	-5166
▁enf	-5167
▁şah	-5168
▁Show	-5169
▁Saf	-5170
▁eserleri	-5171
rian	-5172
▁çök	-5173
▁güncel	-5174
▁Nobel	-5175
chester	-5176
▁Brezilyalı	-5177
▁Du	-5178
▁Bern	-5179
▁Aziz	-5180
▁koleksiyon	-5181
▁üretimi	-5182
▁Smith	-5183
▁ettiler	-5184
▁ortadan	-5185
▁Sir	-5186
ezya	-5187
▁Hey	-5188
gesi	-5189
▁Ülk	-5190
▁köyü	-5191
▁finans	-5192
▁takımının	-5193
▁Cla	-5194
▁ciddi	-5195
▁rolünde	-5196
▁çıkardı	-5197
▁düşür	-5198
▁noktası	-5199
▁kork	-5200
rey	-5201
ğren	-5202
Bu	-5203
▁tablo	-5204
ıda	-5205
▁nak	-5206
▁Barış	-5207
▁Madrid	-5208
▁edin	-5209
▁önünde	-5210
▁Let	-5211
işehir	-5212
out	-5213
▁kanat	-5214
▁biçimde	-5215
gör	-5216
▁pilot	-5217
▁köyleri	-5218
▁Kurul	-5219
▁Sosyalist	-5220
▁sıv	-5221
▁aksine	-5222
▁sözleşme	-5223
▁yönetmeni	-5224
▁zir	-5225
rem	-5226
unlu	-5227
iskop	-5228
▁tedavi	-5229
▁reak	-5230
▁tedav	-5231
alimanı	-5232
ink	-5233
▁Viy	-5234
▁gider	-5235
▁ikinc	-5236
▁Champion	-5237
▁Ec	-5238
Bir	-5239
▁maçına	-5240
▁operasyon	-5241
▁nesn	-5242
amaya	-5243
oda	-5244
▁yaşadı	-5245
▁taşındı	-5246
▁Rap	-5247
▁çerçev	-5248
▁ikisi	-5249
süz	-5250
igür	-5251
▁Yine	-5252
▁Koreli	-5253
▁medya	-5254
▁Birçok	-5255
▁Chic	-5256
ream	-5257
ekim	-5258
▁Fatih	-5259
▁Leon	-5260
▁ilaç	-5261
▁Vakfı	-5262
▁dolayısıyla	-5263
▁Sez	-5264
▁LG	-5265
▁döv	-5266
cılığı	-5267
▁Jan	-5268
▁anlay	-5269
▁şampiyonu	-5270
ansiyel	-5271
▁sahipliği	-5272
▁Milli	-5273
▁bitki	-5274
leyerek	-5275
▁idam	-5276
kender	-5277
isyenler	-5278
ogle	-5279
esh	-5280
raj	-5281
adıkları	-5282
▁vaz	-5283
▁kuvvetleri	-5284
▁dakika	-5285
luğunu	-5286
tıktan	-5287
▁Mi	-5288
▁Sivas	-5289
▁kulübü	-5290
oyu	-5291
▁pet	-5292
▁Studi	-5293
▁üretic	-5294
▁Antalya	-5295
tın	-5296
▁kalmıştır	-5297
▁çekildi	-5298
▁Kütüphan	-5299
▁us	-5300
▁send	-5301
▁gereken	-5302
▁Ardından	-5303
▁cep	-5304
▁Babası	-5305
omi	-5306
▁Kullan	-5307
omp	-5308
amay	-5309
▁Lim	-5310
▁duyur	-5311
duc	-5312
▁aslında	-5313
▁henüz	-5314
amin	-5315
▁kapsamında	-5316
▁Mahkem	-5317
kur	-5318
▁Ang	-5319
▁rest	-5320
▁tane	-5321
▁yörün	-5322
ımıyla	-5323
▁kadınlar	-5324
▁Finlandiya	-5325
▁toplantı	-5326
▁versiyonu	-5327
elidir	-5328
▁Güvenlik	-5329
cük	-5330
edy	-5331
▁adım	-5332
▁biraz	-5333
usuf	-5334
▁Stan	-5335
▁ert	-5336
▁Mezarlığı	-5337
▁Antlaşması	-5338
▁ten	-5339
▁dalg	-5340
▁Kud	-5341
▁göm	-5342
▁rütb	-5343
▁serisi	-5344
leyic	-5345
cia	-5346
portaj	-5347
▁faktör	-5348
▁düştü	-5349
var	-5350
▁Büyükşehir	-5351
şık	-5352
▁MS	-5353
ılıp	-5354
▁ekran	-5355
▁Adaları	-5356
▁oluşmaktadır	-5357
▁teşvik	-5358
▁Form	-5359
▁Yılmaz	-5360
oma	-5361
sat	-5362
▁Tro	-5363
sem	-5364
▁Savunma	-5365
çilik	-5366
iki	-5367
▁saray	-5368
ografisi	-5369
DE	-5370
▁Vil	-5371
▁ara	-5372
edia	-5373
engi	-5374
▁Sad	-5375
▁bask	-5376
▁esn	-5377
▁büny	-5378
▁tesis	-5379
▁kullanılabilir	-5380
▁analiz	-5381
▁yılda	-5382
▁önde	-5383
▁nedeni	-5384
▁Fır	-5385
▁fay	-5386
▁Filistin	-5387
▁Nec	-5388
abilmektedir	-5389
▁Denizi	-5390
liğinin	-5391
GC	-5392
cher	-5393
▁mekan	-5394
aly	-5395
▁cev	-5396
▁Kırım	-5397
▁giden	-5398
▁kurucusu	-5399
▁Pek	-5400
▁gümüş	-5401
▁yılın	-5402
▁özelliği	-5403
▁evren	-5404
▁Victor	-5405
bilim	-5406
rowspan	-5407
ıdır	-5408
▁Gram	-5409
▁Ömer	-5410
▁Asker	-5411
▁protest	-5412
▁Hanedanı	-5413
▁ir	-5414
▁demokr	-5415
▁araz	-5416
▁Yan	-5417
ulmuş	-5418
▁vb	-5419
▁Komitesi	-5420
▁Kole	-5421
▁Hizmet	-5422
mat	-5423
aborat	-5424
▁kesim	-5425
▁çalışır	-5426
ışın	-5427
okulu	-5428
▁yaşan	-5429
▁Rod	-5430
hel	-5431
▁Cas	-5432
▁Esk	-5433
▁muhtemelen	-5434
▁Üçüncü	-5435
▁giderek	-5436
▁Yönetmen	-5437
▁davet	-5438
▁eksik	-5439
▁bunların	-5440
▁Eğer	-5441
yl	-5442
▁molek	-5443
emez	-5444
ship	-5445
▁Jun	-5446
ua	-5447
▁yandan	-5448
▁bisiklet	-5449
▁bölgeler	-5450
▁Boz	-5451
ilmesini	-5452
▁durumunda	-5453
fe	-5454
▁Konya	-5455
ute	-5456
▁meclis	-5457
▁İnternet	-5458
ilerde	-5459
▁Ark	-5460
▁Premier	-5461
şiv	-5462
▁park	-5463
▁bö	-5464
ıyla	-5465
▁end	-5466
▁Kav	-5467
▁Latin	-5468
▁kaps	-5469
▁Viyana	-5470
▁karmaşık	-5471
▁İskender	-5472
kları	-5473
▁Ölümü	-5474
▁oynan	-5475
atej	-5476
▁Lan	-5477
▁yetkil	-5478
▁geliştirilen	-5479
▁FK	-5480
ansız	-5481
TO	-5482
▁Filmin	-5483
▁duyurdu	-5484
ydi	-5485
zo	-5486
ograp	-5487
▁Fizik	-5488
▁düğ	-5489
▁varsay	-5490
▁edilebilir	-5491
▁ap	-5492
▁takv	-5493
field	-5494
▁kimyasal	-5495
▁<	-5496
ülük	-5497
▁nehir	-5498
▁pap	-5499
▁Önc	-5500
fab	-5501
liye	-5502
colspan	-5503
▁içi	-5504
aks	-5505
▁niş	-5506
▁Tekn	-5507
▁babasının	-5508
▁Ke	-5509
▁Okul	-5510
▁Kariyer	-5511
▁birden	-5512
▁asit	-5513
▁mant	-5514
▁kadros	-5515
imet	-5516
lardaki	-5517
▁kurulu	-5518
erg	-5519
▁ulaşım	-5520
CD	-5521
içek	-5522
▁Bilgi	-5523
mey	-5524
▁Ticaret	-5525
▁ettik	-5526
▁pl	-5527
▁Sav	-5528
▁Big	-5529
▁Nov	-5530
menler	-5531
▁astronom	-5532
▁yayınlar	-5533
ülasyon	-5534
efi	-5535
▁prote	-5536
▁çözüm	-5537
▁gazeteci	-5538
▁Ür	-5539
▁International	-5540
▁op	-5541
▁ces	-5542
▁Sarı	-5543
rown	-5544
alardan	-5545
▁yaşındayken	-5546
▁Entertain	-5547
▁filozof	-5548
▁Aşk	-5549
▁Şehrin	-5550
▁Kurt	-5551
▁mesaj	-5552
Av	-5553
▁gerektiğini	-5554
ous	-5555
▁Mih	-5556
▁İsa	-5557
yumu	-5558
atıcı	-5559
▁taht	-5560
▁Disk	-5561
▁avukat	-5562
▁ilişkili	-5563
▁idari	-5564
uke	-5565
▁galibiyet	-5566
▁....	-5567
▁Güreş	-5568
MA	-5569
▁Kraliyet	-5570
ado	-5571
▁yardımcısı	-5572
▁Ram	-5573
▁Soy	-5574
▁disk	-5575
▁seyahat	-5576
rin	-5577
▁oluştuğu	-5578
▁Mev	-5579
▁barındır	-5580
ota	-5581
eyrek	-5582
▁Erdoğan	-5583
oph	-5584
▁kullanılarak	-5585
▁karşılaştır	-5586
▁rej	-5587
▁Şark	-5588
ations	-5589
likleri	-5590
▁büyü	-5591
▁kalp	-5592
▁Polonyalı	-5593
▁Yusuf	-5594
▁yüzünden	-5595
▁altındaki	-5596
işki	-5597
▁düzenli	-5598
▁sonradan	-5599
▁teknoloj	-5600
▁Billboard	-5601
▁kayıp	-5602
▁Fred	-5603
▁çalışması	-5604
▁bilgiler	-5605
▁She	-5606
alılar	-5607
▁seçilmiştir	-5608
chen	-5609
▁etki	-5610
▁aracı	-5611
ex	-5612
elikle	-5613
▁nö	-5614
eddin	-5615
▁gazetec	-5616
▁türleri	-5617
lenmektedir	-5618
etler	-5619
▁aktör	-5620
▁tehdit	-5621
ilendir	-5622
▁onların	-5623
işkin	-5624
▁Kutsal	-5625
▁karşın	-5626
▁nokta	-5627
▁yönünde	-5628
▁Night	-5629
▁dalında	-5630
aza	-5631
▁Entertainment	-5632
▁finale	-5633
▁Selçuklu	-5634
▁Dört	-5635
▁alış	-5636
▁Atlan	-5637
▁kullanır	-5638
▁karakterler	-5639
heim	-5640
inger	-5641
▁üs	-5642
▁SSC	-5643
otball	-5644
▁Okyan	-5645
▁person	-5646
ilmesine	-5647
▁kanser	-5648
▁takımları	-5649
zan	-5650
▁Diyar	-5651
▁giydi	-5652
▁parça	-5653
▁;	-5654
uvarı	-5655
▁Nic	-5656
▁çıkart	-5657
▁Google	-5658
avy	-5659
▁atom	-5660
▁Ox	-5661
▁Hit	-5662
mun	-5663
▁hızla	-5664
tures	-5665
▁sahipti	-5666
▁etik	-5667
▁hidro	-5668
biy	-5669
▁Jim	-5670
▁halkı	-5671
▁imzaladı	-5672
▁Hab	-5673
uncu	-5674
▁Hayat	-5675
▁Chicago	-5676
sc	-5677
▁Tokyo	-5678
sky	-5679
aklı	-5680
▁imk	-5681
▁muhaf	-5682
▁sergil	-5683
▁geçmektedir	-5684
üel	-5685
liga	-5686
▁Bek	-5687
ografik	-5688
▁yayınlan	-5689
▁tuz	-5690
TC	-5691
▁geçici	-5692
▁Kurtuluş	-5693
vanı	-5694
▁Life	-5695
lemesi	-5696
▁Değ	-5697
ider	-5698
▁Ty	-5699
▁subay	-5700
▁mensubu	-5701
▁Stal	-5702
▁Bilin	-5703
landığı	-5704
avatan	-5705
onun	-5706
sında	-5707
▁dedi	-5708
▁Afgan	-5709
▁Luc	-5710
▁antren	-5711
.'	-5712
▁Daniel	-5713
▁Hall	-5714
▁Mimar	-5715
▁Hastan	-5716
rac	-5717
ersin	-5718
demir	-5719
▁Hollandalı	-5720
▁tüket	-5721
▁sözleş	-5722
▁Jackson	-5723
▁benzeri	-5724
▁milliyet	-5725
▁saç	-5726
▁Topluluğu	-5727
▁tren	-5728
▁Köpr	-5729
bridge	-5730
▁Gölü	-5731
▁gar	-5732
▁piyan	-5733
▁Amerikalılar	-5734
ei	-5735
▁Donan	-5736
▁mağlup	-5737
▁Ku	-5738
▁temiz	-5739
▁öğrenciler	-5740
▁class	-5741
ayıp	-5742
▁toplamda	-5743
▁Fas	-5744
lic	-5745
▁Indi	-5746
▁anay	-5747
▁onur	-5748
▁Nas	-5749
▁sistemleri	-5750
▁yazılmış	-5751
▁Kulübü	-5752
adiş	-5753
▁Dam	-5754
▁festiv	-5755
▁gösterildi	-5756
zade	-5757
▁müsabak	-5758
▁Şam	-5759
▁koruma	-5760
ölç	-5761
▁çalıştır	-5762
▁Birleşmiş	-5763
▁farklılık	-5764
▁ep	-5765
ilenin	-5766
▁açıldı	-5767
▁mektup	-5768
VID	-5769
odoks	-5770
▁kuy	-5771
anlara	-5772
▁#	-5773
▁MHP	-5774
▁Bud	-5775
▁birbirine	-5776
▁reklam	-5777
▁Hon	-5778
▁Mid	-5779
yıldız	-5780
▁yılındaki	-5781
▁Fa	-5782
iner	-5783
▁şüp	-5784
▁uzan	-5785
▁sıcaklık	-5786
idir	-5787
top	-5788
▁Ra	-5789
▁ilçesi	-5790
▁Motor	-5791
▁yasal	-5792
tes	-5793
▁oynayan	-5794
bakır	-5795
▁numaralı	-5796
▁Carl	-5797
▁mikro	-5798
▁Gazi	-5799
dun	-5800
▁karbon	-5801
▁bron	-5802
▁çevre	-5803
▁profesör	-5804
ture	-5805
lüğünü	-5806
▁istifa	-5807
▁Ori	-5808
▁öde	-5809
▁eserler	-5810
▁devrim	-5811
DP	-5812
▁kadro	-5813
irli	-5814
▁anti	-5815
▁röportaj	-5816
▁Ki	-5817
▁mim	-5818
▁yans	-5819
▁sinem	-5820
▁gören	-5821
▁olumlu	-5822
▁İstatistik	-5823
▁Orhan	-5824
ımız	-5825
▁evlilik	-5826
lege	-5827
▁öğrenci	-5828
▁olmadan	-5829
ety	-5830
▁güneyinde	-5831
▁asist	-5832
▁ölümü	-5833
ito	-5834
umsuz	-5835
lendirme	-5836
▁Dün	-5837
▁Apple	-5838
▁bıraktı	-5839
▁organizasyon	-5840
omo	-5841
▁akış	-5842
▁Pier	-5843
▁ört	-5844
ology	-5845
Bel	-5846
vel	-5847
▁Nişanı	-5848
▁dayalı	-5849
adıktan	-5850
▁emekli	-5851
▁yarım	-5852
dae	-5853
lası	-5854
▁van	-5855
eğini	-5856
osh	-5857
▁Görev	-5858
▁doğan	-5859
ison	-5860
▁Kazakistan	-5861
▁parlak	-5862
tarı	-5863
lerindeki	-5864
▁Aleks	-5865
▁bür	-5866
▁vermek	-5867
▁süper	-5868
Kaz	-5869
ques	-5870
▁Anth	-5871
▁iklim	-5872
▁kütüphan	-5873
▁yukarı	-5874
▁Jer	-5875
▁isimler	-5876
▁USS	-5877
▁dök	-5878
▁kulübünde	-5879
itör	-5880
▁Ann	-5881
▁ikili	-5882
▁isten	-5883
▁Live	-5884
▁katı	-5885
▁takımına	-5886
▁almaya	-5887
▁haned	-5888
undaki	-5889
cının	-5890
▁Bes	-5891
▁sarı	-5892
▁amaçlı	-5893
▁elinde	-5894
--	-5895
ayarak	-5896
Er	-5897
▁sonu	-5898
ılmasına	-5899
▁gerilim	-5900
▁Club	-5901
▁başk	-5902
▁Eleştir	-5903
pen	-5904
▁Bob	-5905
▁Sekret	-5906
▁aj	-5907
▁Som	-5908
▁animasyon	-5909
▁Ses	-5910
▁fiyat	-5911
▁kitapları	-5912
lenebilir	-5913
okol	-5914
▁Siyasi	-5915
mac	-5916
avuz	-5917
▁mücadel	-5918
▁Pen	-5919
otlar	-5920
ensis	-5921
▁Johan	-5922
▁Şu	-5923
▁yönel	-5924
▁birliği	-5925
▁sürdürdü	-5926
ete	-5927
▁Koca	-5928
ason	-5929
▁webs	-5930
▁günde	-5931
▁Win	-5932
▁göv	-5933
ement	-5934
unk	-5935
▁terim	-5936
▁arttır	-5937
seri	-5938
▁yerli	-5939
▁figür	-5940
ordin	-5941
▁zırh	-5942
▁Bran	-5943
ılmasını	-5944
▁yaklaşım	-5945
▁bölgeye	-5946
▁Eb	-5947
▁SS	-5948
avar	-5949
▁hac	-5950
▁Galeri	-5951
▁Yapım	-5952
mişlerdir	-5953
uşu	-5954
roid	-5955
▁desteği	-5956
▁katılımcı	-5957
▁Çanak	-5958
▁WW	-5959
▁maruz	-5960
▁direktörler	-5961
itar	-5962
paşa	-5963
▁bağlıdır	-5964
uml	-5965
▁fos	-5966
Le	-5967
▁birlikleri	-5968
▁belgesel	-5969
▁birimleri	-5970
▁girmiştir	-5971
▁programları	-5972
win	-5973
▁Ceph	-5974
▁ilişki	-5975
▁und	-5976
▁günümüze	-5977
▁geçmiştir	-5978
aga	-5979
▁hatır	-5980
▁ayrılır	-5981
öğretim	-5982
kür	-5983
▁İşçi	-5984
▁Diyarbakır	-5985
▁Lad	-5986
▁mel	-5987
▁Şeh	-5988
▁klip	-5989
mes	-5990
▁rekor	-5991
▁adayı	-5992
▁gruplar	-5993
eta	-5994
aklar	-5995
aşı	-5996
▁ez	-5997
▁leh	-5998
▁efsan	-5999
eck	-6000
ters	-6001
▁Karl	-6002
▁COVID	-6003
▁gelecek	-6004
▁Britanyalı	-6005
ting	-6006
▁zafer	-6007
▁birisi	-6008
▁Sci	-6009
▁Ekonomi	-6010
▁Gençlik	-6011
ty	-6012
siy	-6013
▁Scott	-6014
▁Arnavutluk	-6015
▁Bosna	-6016
ump	-6017
▁...	-6018
▁Bre	-6019
kov	-6020
▁Fe	-6021
▁Çay	-6022
▁kaçır	-6023
▁Abdullah	-6024
abileceğini	-6025
ular	-6026
▁Hel	-6027
▁metr	-6028
▁kemer	-6029
▁family	-6030
▁Bölge	-6031
▁sürül	-6032
VD	-6033
emesi	-6034
▁Count	-6035
▁teşkil	-6036
▁Almanca	-6037
▁küresel	-6038
liliği	-6039
▁unsur	-6040
▁köydür	-6041
▁petrol	-6042
▁ob	-6043
▁elektronik	-6044
▁dijital	-6045
▁sonuçları	-6046
▁Onur	-6047
pa	-6048
içe	-6049
▁Ten	-6050
▁Çalış	-6051
▁kuzeyinde	-6052
▁Yal	-6053
▁Kudüs	-6054
▁denklem	-6055
▁Anavatan	-6056
ding	-6057
film	-6058
ücut	-6059
▁sonuna	-6060
▁katılım	-6061
▁Fried	-6062
▁Maria	-6063
▁kimya	-6064
▁beşinci	-6065
▁sene	-6066
▁Bi	-6067
▁Uzay	-6068
asıdır	-6069
▁başlandı	-6070
▁görevlendir	-6071
alanan	-6072
▁dizisinde	-6073
▁hayvanlar	-6074
▁Fac	-6075
▁Will	-6076
▁hayatta	-6077
▁halka	-6078
▁Eskişehir	-6079
▁fi	-6080
▁Makedonya	-6081
▁adlandırılır	-6082
▁bulunm	-6083
▁ailesinin	-6084
▁Etap	-6085
ılığında	-6086
▁İttifak	-6087
▁gerçekleşen	-6088
rum	-6089
▁İd	-6090
kor	-6091
▁tahta	-6092
▁AP	-6093
ther	-6094
ferans	-6095
▁vermektedir	-6096
▁Si	-6097
▁Ron	-6098
▁Song	-6099
lanabilir	-6100
rab	-6101
▁basketbolcular	-6102
▁Gelen	-6103
isindeki	-6104
▁katkıda	-6105
▁oldukları	-6106
lob	-6107
▁bitirdi	-6108
ville	-6109
▁otob	-6110
lasman	-6111
▁Genellikle	-6112
▁Je	-6113
▁Örgüt	-6114
ets	-6115
▁Yağ	-6116
ов	-6117
▁BA	-6118
▁Yardımcı	-6119
▁cilt	-6120
▁dayanan	-6121
▁demiryolu	-6122
▁Rep	-6123
▁ince	-6124
▁Zey	-6125
abeth	-6126
veya	-6127
▁Laz	-6128
▁ışı	-6129
arya	-6130
▁tapın	-6131
▁gezegen	-6132
alog	-6133
dırım	-6134
▁{|	-6135
▁geldiği	-6136
oman	-6137
▁gemi	-6138
▁böyle	-6139
▁eleme	-6140
▁Arapça	-6141
türk	-6142
▁modeli	-6143
alli	-6144
▁Camp	-6145
BT	-6146
▁Hacı	-6147
▁risk	-6148
elerle	-6149
▁reform	-6150
▁Prix	-6151
▁Bundes	-6152
▁başlam	-6153
▁ederken	-6154
ağının	-6155
▁Ortodoks	-6156
▁Hy	-6157
wik	-6158
▁DNA	-6159
well	-6160
▁Ca	-6161
▁bakış	-6162
▁Uygul	-6163
▁görülmektedir	-6164
sul	-6165
▁Tes	-6166
mışlardır	-6167
allen	-6168
▁yaprak	-6169
▁kıt	-6170
adişah	-6171
▁anime	-6172
▁Kalesi	-6173
dün	-6174
▁Die	-6175
etleri	-6176
ilerden	-6177
▁toplumsal	-6178
indi	-6179
▁Kış	-6180
▁Law	-6181
adağ	-6182
ution	-6183
▁yeterli	-6184
▁önceden	-6185
ody	-6186
▁Mass	-6187
▁doğusunda	-6188
ebe	-6189
▁Fen	-6190
▁Ail	-6191
▁Saray	-6192
▁istih	-6193
▁sınırlı	-6194
▁Sec	-6195
ahtar	-6196
ulmuştur	-6197
kia	-6198
rısı	-6199
▁karakteri	-6200
ilerinde	-6201
▁Up	-6202
oper	-6203
▁yarg	-6204
▁Havalimanı	-6205
▁Başbakan	-6206
▁pu	-6207
▁Hırvatistan	-6208
▁müş	-6209
işe	-6210
▁yeşil	-6211
▁dağılım	-6212
▁Körf	-6213
yanı	-6214
▁yir	-6215
steri	-6216
▁esir	-6217
ağında	-6218
▁History	-6219
▁yaşamı	-6220
▁Williams	-6221
ibe	-6222
tek	-6223
tihar	-6224
"'	-6225
okul	-6226
▁Kurumu	-6227
IA	-6228
laşık	-6229
▁alternatif	-6230
▁refer	-6231
ardo	-6232
ble	-6233
▁bank	-6234
▁halde	-6235
iber	-6236
▁yetiş	-6237
▁başladığı	-6238
▁katıldığı	-6239
▁Vad	-6240
▁Milletvek	-6241
ão	-6242
▁bunlar	-6243
üyordu	-6244
▁ismini	-6245
▁Lüb	-6246
▁zirv	-6247
▁biriydi	-6248
▁North	-6249
sının	-6250
gam	-6251
▁Defans	-6252
işli	-6253
▁sözcü	-6254
je	-6255
▁Yaşam	-6256
▁mahkem	-6257
▁Haw	-6258
çılar	-6259
▁Turnuv	-6260
▁yayınlanmıştır	-6261
▁Bell	-6262
Fr	-6263
▁şif	-6264
▁koruy	-6265
Ch	-6266
edilenler	-6267
▁°	-6268
▁tipi	-6269
lal	-6270
▁Devrimi	-6271
▁org	-6272
▁Vlad	-6273
▁Just	-6274
▁incelen	-6275
▁Dor	-6276
▁Harry	-6277
▁sinir	-6278
▁doğrul	-6279
▁besteci	-6280
▁yaşanan	-6281
▁bronz	-6282
▁Alf	-6283
▁Mol	-6284
▁nef	-6285
▁içerik	-6286
▁Erken	-6287
▁*	-6288
▁Time	-6289
▁korku	-6290
▁aralarında	-6291
▁zamanlarda	-6292
▁şeh	-6293
kent	-6294
çılık	-6295
▁uğraş	-6296
▁biz	-6297
▁Selim	-6298
cık	-6299
▁araştırmacı	-6300
sis	-6301
▁uygulama	-6302
▁kulüpleri	-6303
antaj	-6304
▁(;	-6305
▁um	-6306
▁yiy	-6307
▁Kupa	-6308
▁erdi	-6309
▁Manchester	-6310
▁başkanları	-6311
hr	-6312
▁bastır	-6313
▁kov	-6314
▁Oli	-6315
▁Clar	-6316
▁Sınıf	-6317
günümüz	-6318
▁Alexander	-6319
▁pen	-6320
▁Başarıları	-6321
▁Yun	-6322
▁mür	-6323
▁isteyen	-6324
esir	-6325
▁Pakistan	-6326
ıma	-6327
estra	-6328
ğunda	-6329
▁okudu	-6330
liğindeki	-6331
▁Pub	-6332
▁boğ	-6333
▁Mont	-6334
▁inşaat	-6335
▁genelde	-6336
sini	-6337
▁görüldü	-6338
sung	-6339
▁Lor	-6340
▁alfab	-6341
▁Mersin	-6342
▁dost	-6343
▁kazananlar	-6344
▁tarihsel	-6345
lit	-6346
▁Sus	-6347
▁sul	-6348
▁alma	-6349
▁uzunluğunda	-6350
▁gerçekleşti	-6351
▁sezonda	-6352
▁yönetmenliğini	-6353
▁Rev	-6354
▁Rey	-6355
”,	-6356
▁stad	-6357
▁albümün	-6358
▁BBC	-6359
▁Organ	-6360
▁sayımına	-6361
▁kendisinin	-6362
üce	-6363
▁dilleri	-6364
▁kaybol	-6365
▁Dük	-6366
▁tec	-6367
▁yüzde	-6368
▁elektro	-6369
▁Football	-6370
▁Out	-6371
▁semt	-6372
▁mir	-6373
▁tez	-6374
▁olaylar	-6375
▁af	-6376
üllü	-6377
▁Fakültesinde	-6378
▁yakınlarında	-6379
▁Ye	-6380
▁kapasit	-6381
▁may	-6382
▁başkanlığı	-6383
▁oluşturulan	-6384
ude	-6385
▁Doğan	-6386
▁Pa	-6387
size	-6388
▁Köyün	-6389
▁sözcük	-6390
▁defnedilenler	-6391
ıldığında	-6392
▁je	-6393
▁Şiir	-6394
▁site	-6395
▁Young	-6396
iba	-6397
uda	-6398
lerdi	-6399
abilmek	-6400
▁alanları	-6401
▁Berk	-6402
uva	-6403
▁Rog	-6404
▁zinc	-6405
▁Fam	-6406
▁Pir	-6407
▁edecek	-6408
oya	-6409
▁Baba	-6410
▁Simon	-6411
▁parçacık	-6412
eus	-6413
▁çekti	-6414
▁bölgenin	-6415
▁üniversite	-6416
III	-6417
▁ekibi	-6418
ER	-6419
▁İlç	-6420
alyalı	-6421
▁varlığı	-6422
▁teorisi	-6423
▁Royal	-6424
BS	-6425
▁Yazar	-6426
▁general	-6427
▁ettiğini	-6428
hak	-6429
▁beğ	-6430
▁kapı	-6431
tim	-6432
rama	-6433
▁onlara	-6434
kurgu	-6435
▁olanak	-6436
▁Bankası	-6437
▁etrafında	-6438
▁çocukları	-6439
gor	-6440
iyer	-6441
▁Sarayı	-6442
▁kıl	-6443
▁Tasar	-6444
▁bitk	-6445
▁herkes	-6446
▁gelişmiş	-6447
üman	-6448
▁prodük	-6449
▁Green	-6450
lemeye	-6451
erisi	-6452
gon	-6453
rağı	-6454
▁hasar	-6455
▁kolon	-6456
▁nükleer	-6457
▁Koç	-6458
▁şer	-6459
▁kalk	-6460
▁Mahkemesi	-6461
YP	-6462
darı	-6463
▁Atina	-6464
▁eline	-6465
▁komutanı	-6466
▁sınıfı	-6467
dere	-6468
▁nadir	-6469
▁Bakü	-6470
▁tank	-6471
Or	-6472
rick	-6473
▁renkli	-6474
lamaktadır	-6475
▁kısıt	-6476
▁ölümüne	-6477
▁Bundesliga	-6478
▁É	-6479
▁Hans	-6480
▁süreli	-6481
ruk	-6482
▁tüf	-6483
▁Hakk	-6484
edek	-6485
▁Bart	-6486
▁Parkı	-6487
▁rakip	-6488
▁büyükel	-6489
▁okum	-6490
ekleri	-6491
▁sinyal	-6492
▁Gerçek	-6493
▁Gab	-6494
▁Cezay	-6495
▁Afrikalı	-6496
rie	-6497
▁Arabistan	-6498
ıbbi	-6499
▁TRT	-6500
▁elektron	-6501
▁Teş	-6502
▁süresi	-6503
▁zamanında	-6504
▁|%	-6505
ulması	-6506
▁Devrim	-6507
üri	-6508
▁ırk	-6509
▁Altı	-6510
▁stratej	-6511
▁tamamlanan	-6512
▁Madal	-6513
Alman	-6514
▁ceza	-6515
▁kahraman	-6516
rest	-6517
▁edildiği	-6518
▁kullandığı	-6519
ept	-6520
oid	-6521
▁Konser	-6522
▁babasıdır	-6523
idae	-6524
▁line	-6525
▁Radyo	-6526
▁How	-6527
▁dile	-6528
▁Çanakkale	-6529
▁hakkındaki	-6530
▁Leg	-6531
▁aray	-6532
▁tasvir	-6533
düz	-6534
▁Uluslar	-6535
eton	-6536
▁seçilen	-6537
▁komşu	-6538
▁Edir	-6539
güne	-6540
▁Şen	-6541
▁Bugün	-6542
▁çatış	-6543
mond	-6544
▁Belde	-6545
▁hareketi	-6546
▁bölümleri	-6547
▁EP	-6548
▁Wat	-6549
▁ceph	-6550
ook	-6551
ğun	-6552
▁kazandır	-6553
▁Sonraki	-6554
▁dünyada	-6555
▁sağlay	-6556
▁Championship	-6557
▁soğuk	-6558
▁kâ	-6559
▁filmidir	-6560
▁Ga	-6561
▁Haçlı	-6562
ando	-6563
▁dışarı	-6564
ömür	-6565
nak	-6566
▁hücre	-6567
▁Sum	-6568
▁Brown	-6569
▁mahalleleri	-6570
nal	-6571
ücu	-6572
▁doğa	-6573
▁özgü	-6574
▁korumak	-6575
▁miktarda	-6576
ator	-6577
▁yola	-6578
▁gönderildi	-6579
▁Tol	-6580
ristal	-6581
ebilecek	-6582
opolis	-6583
▁Avustralyalı	-6584
▁Wolf	-6585
▁play	-6586
Kaynak	-6587
ceğini	-6588
▁artan	-6589
▁sezonun	-6590
ederasyon	-6591
gresi	-6592
iği	-6593
▁Uç	-6594
▁text	-6595
fan	-6596
▁dalga	-6597
hol	-6598
Mar	-6599
▁İlçe	-6600
▁Univers	-6601
▁kaynakları	-6602
▁alınmıştır	-6603
▁sürüldü	-6604
▁hoş	-6605
▁başkent	-6606
gn	-6607
usya	-6608
▁Psik	-6609
▁oluşturdu	-6610
iste	-6611
▁Hik	-6612
lamaya	-6613
▁seyir	-6614
▁Yunanca	-6615
ross	-6616
▁yanıt	-6617
▁açıklandı	-6618
rel	-6619
isip	-6620
ğının	-6621
▁tabanlı	-6622
▁ürünleri	-6623
▁silahlı	-6624
imal	-6625
▁taarr	-6626
▁ödülünü	-6627
▁Arka	-6628
▁evlen	-6629
▁kalma	-6630
▁grubunun	-6631
'''	-6632
iantep	-6633
▁kalır	-6634
▁kilise	-6635
▁kuz	-6636
ember	-6637
▁Katılım	-6638
▁parlament	-6639
urus	-6640
▁otor	-6641
▁hastalı	-6642
▁takımlar	-6643
▁Reg	-6644
barat	-6645
▁Sinan	-6646
▁maça	-6647
▁yürüy	-6648
▁çeş	-6649
awa	-6650
▁görür	-6651
▁ge	-6652
▁Forvet	-6653
inn	-6654
▁İskoçya	-6655
▁potansiyel	-6656
▁sıvı	-6657
resi	-6658
▁Nij	-6659
▁Seb	-6660
▁baskın	-6661
söz	-6662
imir	-6663
▁Güç	-6664
▁Sing	-6665
layıp	-6666
cilerin	-6667
▁bakımından	-6668
▁Kes	-6669
besi	-6670
▁değildi	-6671
▁sergilen	-6672
▁deprem	-6673
▁Yugoslavya	-6674
▁harit	-6675
▁profili	-6676
▁Ödüller	-6677
ölçümü	-6678
▁Jones	-6679
▁dolaş	-6680
▁makam	-6681
▁olmaya	-6682
▁Olay	-6683
▁Viet	-6684
▁ister	-6685
▁yolcu	-6686
▁nitelendir	-6687
▁durumlarda	-6688
isar	-6689
▁ayar	-6690
▁seçen	-6691
▁sezonunun	-6692
▁stil	-6693
▁Tunus	-6694
▁anıt	-6695
lüğe	-6696
▁Ceza	-6697
▁kapalı	-6698
▁Yarım	-6699
▁ordusunun	-6700
ropol	-6701
itable	-6702
▁Grammy	-6703
ea	-6704
log	-6705
▁tay	-6706
uydu	-6707
▁Resmî	-6708
abi	-6709
▁Eyaleti	-6710
▁başlıca	-6711
▁İsveçli	-6712
lot	-6713
nie	-6714
▁listeleri	-6715
antum	-6716
▁College	-6717
Amerik	-6718
▁beklen	-6719
▁gelişim	-6720
▁Chris	-6721
▁eşlik	-6722
aze	-6723
erv	-6724
▁Company	-6725
▁işletim	-6726
▁numaraya	-6727
▁SA	-6728
▁Suudi	-6729
izmi	-6730
▁Meg	-6731
web	-6732
▁con	-6733
▁Liv	-6734
▁Emin	-6735
▁depol	-6736
▁anlamda	-6737
▁anlaşma	-6738
ск	-6739
▁Eserleri	-6740
▁başlangı	-6741
▁Ege	-6742
▁Gil	-6743
▁süs	-6744
▁geçerli	-6745
▁tanınan	-6746
▁Oh	-6747
▁ban	-6748
▁tarafında	-6749
amo	-6750
▁Gold	-6751
likler	-6752
yaspor	-6753
▁Haber	-6754
lanarak	-6755
▁kurtul	-6756
▁değeri	-6757
▁kayıtlarında	-6758
lesi	-6759
▁gay	-6760
die	-6761
thur	-6762
▁NGC	-6763
▁aksiyon	-6764
▁katılmıştır	-6765
pınar	-6766
▁August	-6767
▁meydan	-6768
▁yükselt	-6769
arl	-6770
▁Tut	-6771
▁Çık	-6772
▁koc	-6773
▁restor	-6774
SO	-6775
ecep	-6776
ısındaki	-6777
▁soruml	-6778
▁Litvanya	-6779
emedi	-6780
▁birinin	-6781
try	-6782
▁SP	-6783
▁Askeri	-6784
▁karıştır	-6785
▁Gaziantep	-6786
▁haft	-6787
▁County	-6788
oza	-6789
ikler	-6790
▁Hill	-6791
▁kenar	-6792
ilerinden	-6793
▁God	-6794
▁Hu	-6795
ikast	-6796
▁Dağları	-6797
▁Avusturyalı	-6798
▁eyaletinde	-6799
▁birer	-6800
▁karşılığında	-6801
omer	-6802
tris	-6803
uki	-6804
Station	-6805
▁Android	-6806
▁Madalyası	-6807
▁çevresinde	-6808
▁Balıkesir	-6809
▁politikacı	-6810
▁rah	-6811
eğin	-6812
agan	-6813
temi	-6814
▁İh	-6815
▁Fot	-6816
▁açıdan	-6817
▁birimi	-6818
▁cinayet	-6819
▁Stadyumu	-6820
▁sonuçlar	-6821
▁inanç	-6822
▁Balkan	-6823
▁senaryosunu	-6824
türü	-6825
atlar	-6826
▁Halil	-6827
▁Cy	-6828
anlarının	-6829
▁Pav	-6830
▁Anne	-6831
▁örneğin	-6832
▁eğitimini	-6833
apı	-6834
ebilen	-6835
▁Yerli	-6836
▁doldur	-6837
ía	-6838
▁Gor	-6839
▁kısmen	-6840
▁rahatsız	-6841
▁emr	-6842
▁organiz	-6843
▁karısı	-6844
DF	-6845
▁FA	-6846
▁Hun	-6847
▁mang	-6848
ield	-6849
▁sürede	-6850
▁değişken	-6851
hem	-6852
▁Onun	-6853
▁sporcu	-6854
▁Society	-6855
▁bulundur	-6856
▁komutasındaki	-6857
akya	-6858
▁Pot	-6859
▁Sef	-6860
▁Sib	-6861
▁LGBT	-6862
▁Sayısı	-6863
▁sürümü	-6864
▁Kişisel	-6865
▁romanları	-6866
itif	-6867
▁Hil	-6868
ğünde	-6869
▁Eliz	-6870
▁SC	-6871
▁Sonr	-6872
▁iptal	-6873
▁arz	-6874
ilmeye	-6875
wikitable	-6876
▁eğer	-6877
▁Adı	-6878
▁Zelanda	-6879
▁karşıtı	-6880
▁Lar	-6881
▁Tatar	-6882
▁aydın	-6883
▁olmadı	-6884
▁unvanı	-6885
▁Özellik	-6886
▁işg	-6887
İs	-6888
ray	-6889
▁Post	-6890
▁olacaktır	-6891
ree	-6892
▁Çeşit	-6893
▁kişiden	-6894
▁Temel	-6895
▁çıktığı	-6896
▁üstlendi	-6897
▁şunlardır	-6898
▁sisteminin	-6899
▁paket	-6900
▁ısı	-6901
▁yönlendir	-6902
▁ülkelerde	-6903
▁kilometre	-6904
ela	-6905
▁ailenin	-6906
▁geçirdiği	-6907
▁Vas	-6908
oston	-6909
▁Hanım	-6910
▁tabak	-6911
▁çizg	-6912
▁Fars	-6913
▁Afganistan	-6914
ojen	-6915
larus	-6916
▁tipik	-6917
▁Mağ	-6918
▁Stre	-6919
larca	-6920
▁Kolomb	-6921
ffff	-6922
▁aittir	-6923
▁iktidar	-6924
▁Oxford	-6925
▁Kurgusal	-6926
for	-6927
▁nih	-6928
▁öykü	-6929
rov	-6930
▁cinsiyet	-6931
▁hastalığı	-6932
azz	-6933
▁Komutanlığı	-6934
▁yenilen	-6935
▁Pi	-6936
aker	-6937
▁Nar	-6938
▁yem	-6939
ikleri	-6940
▁bünyesinde	-6941
atur	-6942
▁Yet	-6943
▁feth	-6944
ayıcı	-6945
▁üyesidir	-6946
▁sanayi	-6947
▁kontrolü	-6948
▁Cin	-6949
▁Buff	-6950
▁Best	-6951
▁başlangıçta	-6952
rev	-6953
amayan	-6954
uck	-6955
▁paral	-6956
▁Cambridge	-6957
stem	-6958
▁Hac	-6959
▁Vin	-6960
▁terör	-6961
▁açılan	-6962
▁Dun	-6963
▁hit	-6964
andır	-6965
▁School	-6966
▁Wood	-6967
▁görsel	-6968
▁Nin	-6969
▁Beh	-6970
ımları	-6971
▁yakıt	-6972
ûm	-6973
▁yanına	-6974
▁Karay	-6975
mekteydi	-6976
▁Bül	-6977
▁uzat	-6978
▁London	-6979
▁hatt	-6980
▁performansı	-6981
dası	-6982
▁Cha	-6983
▁halkın	-6984
▁süreci	-6985
▁Saadet	-6986
onz	-6987
▁Bundan	-6988
▁evinde	-6989
▁festival	-6990
▁kaydetti	-6991
▁salon	-6992
▁görevine	-6993
alandır	-6994
▁erkekler	-6995
oku	-6996
▁Gençler	-6997
ceği	-6998
▁geçerek	-6999
▁temsilcisi	-7000
▁mi	-7001
▁Özbek	-7002
▁belirgin	-7003
▁önüne	-7004
▁Matt	-7005
▁sel	-7006
▁Cephesi	-7007
▁tarihte	-7008
▁bölümde	-7009
olk	-7010
▁Kanal	-7011
▁yazılı	-7012
▁edip	-7013
▁Serie	-7014
▁şehirdir	-7015
▁gerç	-7016
▁hattı	-7017
▁oynamıştır	-7018
▁Sı	-7019
RA	-7020
▁mülk	-7021
▁keşif	-7022
▁önder	-7023
▁vazgeç	-7024
▁unvanını	-7025
▁Um	-7026
▁Konf	-7027
Türkiye	-7028
▁Kahraman	-7029
▁Metin	-7030
ılma	-7031
▁iyileştir	-7032
▁Diskografi	-7033
▁Ateş	-7034
▁Euro	-7035
▁mavi	-7036
▁olumsuz	-7037
▁bölgesel	-7038
▁forvet	-7039
▁vücut	-7040
sy	-7041
▁çekim	-7042
iskopos	-7043
▁reaksiyon	-7044
▁eleştirmen	-7045
urlar	-7046
▁Piyade	-7047
▁sekret	-7048
▁Dub	-7049
▁füz	-7050
▁savaşı	-7051
▁çekirdek	-7052
▁akademisyen	-7053
oul	-7054
▁WWE	-7055
▁SSCB	-7056
▁maçları	-7057
▁dam	-7058
▁nesil	-7059
▁Hum	-7060
LA	-7061
▁Azeri	-7062
▁partiler	-7063
▁yaşlı	-7064
▁Ni	-7065
kaya	-7066
▁kli	-7067
▁Kayseri	-7068
▁Kum	-7069
▁inf	-7070
▁Kazan	-7071
▁Gön	-7072
ardin	-7073
▁Anna	-7074
onik	-7075
▁rüz	-7076
▁yapılması	-7077
▁Kütüphanesi	-7078
soy	-7079
▁imza	-7080
lag	-7081
▁yazılmıştır	-7082
▁Pil	-7083
▁çeviri	-7084
dükten	-7085
▁Klasik	-7086
▁sayfası	-7087
▁Buz	-7088
▁şarap	-7089
▁reh	-7090
▁Jour	-7091
▁cami	-7092
▁vurg	-7093
ifik	-7094
▁esnasında	-7095
▁hangi	-7096
▁Philip	-7097
▁mensup	-7098
▁karışık	-7099
memektedir	-7100
▁Yazı	-7101
▁tarzı	-7102
▁öv	-7103
▁cen	-7104
illiği	-7105
▁uydu	-7106
▁Federal	-7107
▁yöntemi	-7108
ağını	-7109
▁Konuyla	-7110
▁AC	-7111
▁Öğren	-7112
▁suyu	-7113
▁maddesi	-7114
▁İşlet	-7115
▁yörüng	-7116
▁senarist	-7117
mini	-7118
▁Matematik	-7119
▁Amatör	-7120
▁Yukarı	-7121
▁tamamı	-7122
▁Vietnam	-7123
aten	-7124
adaki	-7125
▁yenerek	-7126
▁gerekç	-7127
▁teknoloji	-7128
▁erişim	-7129
▁işbirliği	-7130
▁buluş	-7131
bor	-7132
▁sıf	-7133
▁türlü	-7134
▁Filip	-7135
▁Meydan	-7136
▁Türkler	-7137
▁Nak	-7138
▁ilinde	-7139
▁otomatik	-7140
low	-7141
▁eğlen	-7142
▁düşünülmektedir	-7143
jinal	-7144
▁sent	-7145
▁Ru	-7146
▁But	-7147
▁sıklıkla	-7148
▁yaşamaktadır	-7149
▁yönetilen	-7150
▁Sub	-7151
▁ex	-7152
▁Hap	-7153
▁Brit	-7154
▁rady	-7155
▁Münih	-7156
▁Mahall	-7157
▁https	-7158
▁rep	-7159
▁bgcolor	-7160
odor	-7161
▁dük	-7162
▁Kong	-7163
▁Baz	-7164
▁kendilerini	-7165
ünc	-7166
▁Polis	-7167
şam	-7168
▁dom	-7169
▁Sic	-7170
liğinden	-7171
par	-7172
mara	-7173
▁Bru	-7174
gia	-7175
▁grafik	-7176
▁protesto	-7177
▁gruba	-7178
mesinde	-7179
▁hazırlık	-7180
▁vek	-7181
▁Edirne	-7182
▁Kosova	-7183
▁şampiyonluğu	-7184
latı	-7185
▁Sanayi	-7186
▁muhalef	-7187
▁derecede	-7188
▁taban	-7189
▁Boston	-7190
▁•	-7191
▁Columb	-7192
▁Nokia	-7193
▁oluşturmak	-7194
kestr	-7195
▁Belarus	-7196
▁olmakla	-7197
▁özellikler	-7198
▁artış	-7199
▁gönderdi	-7200
▁PlayStation	-7201
rul	-7202
yaf	-7203
▁Çel	-7204
▁türüdür	-7205
agu	-7206
izmin	-7207
▁çağdaş	-7208
▁Seçim	-7209
▁tarihinin	-7210
▁Nil	-7211
▁yasa	-7212
sizlik	-7213
▁olduktan	-7214
▁solo	-7215
▁tarihlerinde	-7216
▁â	-7217
▁House	-7218
▁başkanlık	-7219
▁Que	-7220
▁cem	-7221
▁Papa	-7222
▁Helen	-7223
▁Üniversite	-7224
▁köyün	-7225
▁Muhaf	-7226
▁ötürü	-7227
▁Albert	-7228
▁bakanları	-7229
▁görünt	-7230
▁Friedrich	-7231
▁birik	-7232
ımlı	-7233
▁Bilinmiyor	-7234
▁atıf	-7235
▁Kılıç	-7236
▁Elizabeth	-7237
▁turda	-7238
▁Pazar	-7239
çiliği	-7240
lerdeki	-7241
gat	-7242
▁Dik	-7243
▁Arch	-7244
▁baraj	-7245
▁Times	-7246
▁uçağı	-7247
▁ittifak	-7248
▁eb	-7249
▁boyu	-7250
▁devletin	-7251
şi	-7252
▁maliyet	-7253
▁dergisi	-7254
▁iP	-7255
▁Good	-7256
▁denet	-7257
▁batısında	-7258
▁Bunların	-7259
▁ortasında	-7260
con	-7261
▁Barb	-7262
mam	-7263
▁BM	-7264
▁Cast	-7265
▁Tarım	-7266
▁sakat	-7267
ull	-7268
▁dos	-7269
▁harekâ	-7270
▁şarkının	-7271
tive	-7272
▁hayatına	-7273
▁Francisco	-7274
acaktı	-7275
▁varlık	-7276
ılmasıyla	-7277
aska	-7278
▁Hein	-7279
malarını	-7280
▁düzenlendi	-7281
po	-7282
▁askerleri	-7283
▁emir	-7284
▁müzikal	-7285
ador	-7286
▁tır	-7287
▁uzanan	-7288
ıydı	-7289
▁Dig	-7290
▁Sanatlar	-7291
iko	-7292
ahiy	-7293
▁seviye	-7294
▁merkezinde	-7295
▁sın	-7296
▁eğilim	-7297
▁Dizi	-7298
▁Voleybol	-7299
ovan	-7300
▁yazmıştır	-7301
▁Holly	-7302
▁hariç	-7303
▁oluşturduğu	-7304
enko	-7305
▁Bib	-7306
ümr	-7307
▁Bölgesel	-7308
▁terimi	-7309
▁oyunculuk	-7310
▁rekabet	-7311
hu	-7312
▁zih	-7313
▁sokak	-7314
▁Lübnan	-7315
▁göreve	-7316
▁Yardımcısı	-7317
ayık	-7318
▁proje	-7319
▁bayrak	-7320
▁intihar	-7321
▁$	-7322
▁ilham	-7323
lenerek	-7324
▁takımlarından	-7325
▁tarihçi	-7326
ihan	-7327
▁Sonra	-7328
▁toplu	-7329
▁karakterleri	-7330
▁Hüküm	-7331
▁pir	-7332
▁İnc	-7333
▁başlattı	-7334
eman	-7335
▁Evli	-7336
▁Başlangıç	-7337
ulus	-7338
▁Anti	-7339
▁Kanun	-7340
▁sendrom	-7341
lé	-7342
ansiyon	-7343
▁nüfusun	-7344
▁itir	-7345
▁mevki	-7346
▁güçlendir	-7347
▁çalışmalarına	-7348
grad	-7349
▁romanı	-7350
▁Blo	-7351
▁Doğum	-7352
▁göstermiştir	-7353
▁büt	-7354
▁güz	-7355
▁mezunu	-7356
▁doktora	-7357
▁Yıldırım	-7358
makla	-7359
▁Çünkü	-7360
▁danışman	-7361
▁savaşın	-7362
▁romantik	-7363
▁Esp	-7364
▁font	-7365
▁ligi	-7366
▁evrim	-7367
▁hayal	-7368
icial	-7369
▁devre	-7370
▁çoğunluğu	-7371
▁Had	-7372
▁vücu	-7373
itir	-7374
▁kıyas	-7375
▁Uğ	-7376
▁fel	-7377
▁işe	-7378
▁cumhuriyet	-7379
▁öncesinde	-7380
▁Ebu	-7381
▁değişim	-7382
irken	-7383
▁konuk	-7384
▁Latince	-7385
▁bağış	-7386
▁kalıntı	-7387
▁Arthur	-7388
tuğ	-7389
luğun	-7390
denin	-7391
▁Küb	-7392
▁Dest	-7393
▁olmasını	-7394
▁Bang	-7395
▁Performan	-7396
esiz	-7397
ersek	-7398
▁Dair	-7399
orth	-7400
▁Nam	-7401
asız	-7402
azak	-7403
ios	-7404
▁yatırım	-7405
▁müttefik	-7406
olo	-7407
▁Çat	-7408
▁Bütün	-7409
▁çevrimi	-7410
asan	-7411
ukur	-7412
▁Wall	-7413
dığını	-7414
opter	-7415
▁olası	-7416
▁çekilen	-7417
▁içermektedir	-7418
▁Kamp	-7419
▁kalit	-7420
▁Samsung	-7421
▁okun	-7422
▁Toplum	-7423
▁anahtar	-7424
PS	-7425
box	-7426
Aday	-7427
▁Nes	-7428
▁anı	-7429
▁Ever	-7430
▁ölçek	-7431
doğusunda	-7432
cunun	-7433
▁yaşamış	-7434
▁Steph	-7435
▁gelmiş	-7436
▁ekib	-7437
ré	-7438
ange	-7439
▁kütle	-7440
itter	-7441
▁kriz	-7442
▁kaçın	-7443
▁şehirde	-7444
emektedir	-7445
▁blok	-7446
▁liber	-7447
ologlar	-7448
▁Sand	-7449
▁ted	-7450
▁çağır	-7451
▁geliştirme	-7452
ан	-7453
tions	-7454
▁Çerkes	-7455
▁Yam	-7456
ağına	-7457
pat	-7458
rez	-7459
▁şüph	-7460
▁Ligue	-7461
▁çıkmış	-7462
▁ekiplerinden	-7463
▁istatistikleri	-7464
▁dışındaki	-7465
▁bölgelerde	-7466
IS	-7467
▁Ruh	-7468
▁viz	-7469
▁Award	-7470
▁kaybeden	-7471
isiz	-7472
▁cevap	-7473
mud	-7474
ifer	-7475
▁Galler	-7476
yen	-7477
▁ışın	-7478
▁yirmi	-7479
▁Temsil	-7480
▁margin	-7481
une	-7482
lamalar	-7483
▁Vi	-7484
▁Fox	-7485
▁Game	-7486
▁akademik	-7487
▁etkileri	-7488
ittle	-7489
▁kadınların	-7490
▁Kub	-7491
▁Toprak	-7492
sü	-7493
▁aşk	-7494
▁bundan	-7495
▁Nijer	-7496
▁DVD	-7497
▁Oğuz	-7498
▁Silahlı	-7499
▁yarışmacı	-7500
▁kutsal	-7501
▁askerler	-7502
vard	-7503
▁frek	-7504
▁Örgütü	-7505
ст	-7506
▁Allah	-7507
▁sığın	-7508
▁güreşçi	-7509
▁İmparatorluk	-7510
▁Vit	-7511
diğini	-7512
▁silin	-7513
▁servis	-7514
▁Bus	-7515
andar	-7516
iral	-7517
▁Işık	-7518
▁Lang	-7519
larıdır	-7520
▁Şim	-7521
ıntılı	-7522
▁Şahin	-7523
▁seçimi	-7524
▁protein	-7525
▁Kh	-7526
▁Sn	-7527
▁Ky	-7528
▁okuy	-7529
▁yenilg	-7530
▁kulüplerinde	-7531
▁tanınır	-7532
▁Sadece	-7533
bal	-7534
▁Cezayir	-7535
usa	-7536
▁geomet	-7537
▁şov	-7538
▁kale	-7539
▁köyünde	-7540
ria	-7541
▁dey	-7542
mamıştır	-7543
▁Koleji	-7544
▁Kenn	-7545
igan	-7546
▁fen	-7547
▁Maur	-7548
gur	-7549
▁Sof	-7550
▁Sanatçı	-7551
ista	-7552
▁Hür	-7553
sta	-7554
zat	-7555
aven	-7556
▁Ein	-7557
▁Sok	-7558
▁Ener	-7559
▁Jeff	-7560
▁Şeyh	-7561
▁yayımladı	-7562
▁bağlantılı	-7563
adel	-7564
▁Por	-7565
▁kültürü	-7566
iat	-7567
▁Cins	-7568
lamaları	-7569
▁layık	-7570
ılıyor	-7571
▁Model	-7572
▁ederler	-7573
▁por	-7574
▁gövde	-7575
▁kanalı	-7576
▁Hastanesi	-7577
▁Çoğu	-7578
▁Hir	-7579
encer	-7580
▁aralık	-7581
▁CA	-7582
pool	-7583
▁yel	-7584
ilmişti	-7585
ükem	-7586
▁Rem	-7587
▁vil	-7588
▁Yerleş	-7589
▁ekonomi	-7590
▁taarruz	-7591
▁MP	-7592
▁kenti	-7593
▁kazandığı	-7594
▁Günü	-7595
esiydi	-7596
luğa	-7597
▁set	-7598
▁dergi	-7599
▁Felsef	-7600
▁Listesi	-7601
▁manyetik	-7602
▁yarışması	-7603
itch	-7604
▁piş	-7605
▁öğrencisi	-7606
▁Ath	-7607
itika	-7608
▁sömür	-7609
▁karşıya	-7610
cağı	-7611
height	-7612
▁bakan	-7613
▁hizmete	-7614
▁oluşuyordu	-7615
mik	-7616
▁köpek	-7617
▁olayları	-7618
adası	-7619
▁kaynaklar	-7620
ović	-7621
▁fer	-7622
dim	-7623
emix	-7624
▁McC	-7625
▁örneği	-7626
▁gazete	-7627
▁takımyıldız	-7628
▁Çevre	-7629
▁lak	-7630
▁Long	-7631
▁komün	-7632
ال	-7633
udur	-7634
▁cer	-7635
▁yapma	-7636
▁bilgileri	-7637
ps	-7638
▁Arm	-7639
▁Fel	-7640
bit	-7641
▁Laur	-7642
▁Kast	-7643
▁Çak	-7644
general	-7645
reli	-7646
ülür	-7647
▁Jane	-7648
▁keşfed	-7649
▁Ala	-7650
mektir	-7651
▁markaları	-7652
helm	-7653
ides	-7654
▁Jor	-7655
▁bina	-7656
▁Tümeni	-7657
▁arşiv	-7658
▁Kongresi	-7659
▁fırlat	-7660
▁dolu	-7661
▁ikna	-7662
▁Aus	-7663
▁Karadağ	-7664
▁Ertesi	-7665
▁şans	-7666
▁albümler	-7667
▁sc	-7668
▁manastır	-7669
▁genelinde	-7670
▁bileşen	-7671
▁sorunları	-7672
▁Sloven	-7673
ume	-7674
▁Andrew	-7675
▁çözün	-7676
yak	-7677
▁disip	-7678
▁Osmanlılar	-7679
▁Pierre	-7680
cılığını	-7681
work	-7682
▁Ağa	-7683
▁İlet	-7684
▁VI	-7685
▁hazırlanan	-7686
engiz	-7687
▁zehir	-7688
▁kısmında	-7689
ance	-7690
tıcı	-7691
▁hâl	-7692
▁flor	-7693
▁verilm	-7694
▁Christian	-7695
▁Mr	-7696
▁Copa	-7697
▁yerlerde	-7698
▁Sha	-7699
▁Tony	-7700
▁Sig	-7701
onlar	-7702
▁kişidir	-7703
▁Belediyespor	-7704
▁Antonio	-7705
aft	-7706
▁''	-7707
▁Prim	-7708
▁Oranı	-7709
isc	-7710
▁Det	-7711
▁Örnek	-7712
gıt	-7713
rof	-7714
üşü	-7715
▁ma	-7716
▁Üs	-7717
▁Bra	-7718
elenen	-7719
▁Slav	-7720
etiyle	-7721
▁Altay	-7722
▁başvur	-7723
▁Ekonomik	-7724
▁gördüğü	-7725
essiz	-7726
▁ayrılmıştır	-7727
eva	-7728
emeye	-7729
▁gıda	-7730
▁Turg	-7731
▁hızı	-7732
▁Atlet	-7733
▁Arjantinli	-7734
iser	-7735
▁Joe	-7736
▁White	-7737
enz	-7738
▁Aile	-7739
▁Üret	-7740
▁Lew	-7741
▁sundu	-7742
▁yaşındaki	-7743
▁tanımlanan	-7744
▁takson	-7745
uya	-7746
▁bec	-7747
tikten	-7748
▁bahsed	-7749
▁Sistemi	-7750
▁arkadaşları	-7751
iga	-7752
▁zorunlu	-7753
▁sitesinde	-7754
dev	-7755
eyh	-7756
obi	-7757
▁Bad	-7758
▁nis	-7759
▁taşıt	-7760
▁yargı	-7761
▁Romalı	-7762
▁kişilerin	-7763
çilerin	-7764
▁yetersiz	-7765
ranç	-7766
▁Cre	-7767
▁Ağır	-7768
▁Dergisi	-7769
▁Beldeler	-7770
▁OS	-7771
▁Your	-7772
▁Recep	-7773
▁yürür	-7774
▁karakterini	-7775
ston	-7776
likle	-7777
▁Üzer	-7778
▁atmos	-7779
▁fe	-7780
▁Hong	-7781
▁Çağı	-7782
▁giyen	-7783
▁dağılımı	-7784
▁çalışmalarını	-7785
edinci	-7786
ET	-7787
edisi	-7788
▁sakin	-7789
▁yarısında	-7790
▁oynamaktadır	-7791
oi	-7792
port	-7793
▁basınç	-7794
▁karşılan	-7795
▁Bunlardan	-7796
▁mis	-7797
▁bilimkurgu	-7798
▁sırt	-7799
lemiştir	-7800
▁Ern	-7801
▁Taylor	-7802
▁Marmara	-7803
eria	-7804
inus	-7805
▁İktis	-7806
▁Johnson	-7807
▁molekül	-7808
ister	-7809
▁bugünkü	-7810
▁Ayak	-7811
▁liman	-7812
▁personel	-7813
▁bölgeleri	-7814
anus	-7815
▁görevinden	-7816
cinsel	-7817
kanlar	-7818
ahi	-7819
▁Kafkasya	-7820
▁tepki	-7821
▁bireysel	-7822
CI	-7823
ersey	-7824
▁gemisi	-7825
▁bağlam	-7826
▁(%	-7827
▁Şer	-7828
▁Kitab	-7829
▁Pictures	-7830
AB	-7831
inia	-7832
▁rolünü	-7833
Kar	-7834
▁İns	-7835
▁Ortak	-7836
▁Soğ	-7837
▁opera	-7838
elly	-7839
▁hab	-7840
▁Yok	-7841
▁statüsü	-7842
▁yapıldığı	-7843
▁kapsamlı	-7844
▁Teknoloji	-7845
NAP	-7846
▁Norman	-7847
esse	-7848
Belde	-7849
▁Gez	-7850
▁başı	-7851
▁kazı	-7852
arth	-7853
ilip	-7854
aport	-7855
▁Santa	-7856
▁sahil	-7857
▁paralel	-7858
ayeti	-7859
▁Artvin	-7860
▁tasarımı	-7861
▁listesine	-7862
iff	-7863
esun	-7864
▁işçi	-7865
▁klav	-7866
▁dönen	-7867
▁Kamu	-7868
▁kalab	-7869
▁ücretsiz	-7870
eğe	-7871
▁yiyecek	-7872
▁Â	-7873
gız	-7874
▁denilen	-7875
▁Tev	-7876
▁NATO	-7877
▁tartışmalar	-7878
▁Gem	-7879
▁açılış	-7880
▁Orman	-7881
▁vergi	-7882
▁güçleri	-7883
▁Maj	-7884
▁esin	-7885
giller	-7886
abilirler	-7887
▁Group	-7888
▁kendilerine	-7889
Yİ	-7890
ilerle	-7891
▁Kimya	-7892
▁kuram	-7893
▁mekaniz	-7894
▁yerleri	-7895
▁gösterilmiştir	-7896
ct	-7897
▁koz	-7898
▁suyun	-7899
▁Aslan	-7900
▁kısmını	-7901
ılmaya	-7902
▁çiçek	-7903
▁ölü	-7904
▁Küre	-7905
▁ayrım	-7906
▁oyunun	-7907
bel	-7908
▁bölümünü	-7909
▁Faz	-7910
▁attığı	-7911
amamıştır	-7912
▁Tib	-7913
▁oksi	-7914
▁çevrimiçi	-7915
El	-7916
▁kitabında	-7917
▁onunla	-7918
▁yardımıyla	-7919
MSZ	-7920
▁Yür	-7921
▁mimari	-7922
▁Marc	-7923
▁şeker	-7924
▁nitelik	-7925
kate	-7926
aboratuvar	-7927
its	-7928
▁Geçmiş	-7929
▁rolüyle	-7930
▁öt	-7931
▁ortalarında	-7932
▁sayılabilir	-7933
ín	-7934
▁Town	-7935
kut	-7936
▁Dream	-7937
▁tekni	-7938
Kazanan	-7939
▁sig	-7940
▁parçaları	-7941
▁değiştirildi	-7942
ĞMSZ	-7943
▁Las	-7944
Yunan	-7945
▁Görün	-7946
▁resmen	-7947
▁duygu	-7948
batısında	-7949
▁Hükûmeti	-7950
EL	-7951
▁Madalya	-7952
▁reddetti	-7953
▁varlığını	-7954
▁ker	-7955
▁Sant	-7956
▁Yabancı	-7957
mede	-7958
▁Koz	-7959
▁bölgelerinde	-7960
▁Robin	-7961
▁South	-7962
▁Stalin	-7963
▁gösterime	-7964
eksel	-7965
▁Rusça	-7966
▁tutul	-7967
▁Fal	-7968
▁kurb	-7969
▁uğram	-7970
▁birini	-7971
ikat	-7972
▁Bet	-7973
▁Şili	-7974
=#	-7975
▁İdari	-7976
▁Vladimir	-7977
gir	-7978
razam	-7979
▁Cadde	-7980
IV	-7981
ecik	-7982
▁bahç	-7983
öly	-7984
ee	-7985
▁koordin	-7986
▁sanatçılar	-7987
▁Büyükel	-7988
▁olun	-7989
▁aktris	-7990
▁müzisyenler	-7991
eryal	-7992
▁«	-7993
▁vide	-7994
▁köprü	-7995
▁düzeyde	-7996
▁zamanla	-7997
▁had	-7998
▁Mars	-7999
▁stadyum	-8000
▁alanlarda	-8001
Ad	-8002
zen	-8003
tron	-8004
▁High	-8005
▁arkeolojik	-8006
▁Trabzonspor	-8007
▁Cev	-8008
▁teker	-8009
▁yerinde	-8010
▁Mül	-8011
▁Balt	-8012
▁Steve	-8013
▁yönetmenleri	-8014
lısı	-8015
▁idare	-8016
▁Cemiyeti	-8017
▁Fl	-8018
▁DYP	-8019
▁tüy	-8020
▁yitir	-8021
▁yerler	-8022
▁ayaklan	-8023
▁İçişleri	-8024
▁imparatorluk	-8025
EC	-8026
oon	-8027
▁(,	-8028
amaları	-8029
▁Walter	-8030
▁ayı	-8031
alarla	-8032
▁Anayasa	-8033
▁seslendirme	-8034
arta	-8035
▁YouT	-8036
▁kullanılması	-8037
uka	-8038
▁Stephen	-8039
duk	-8040
▁beden	-8041
▁kalıcı	-8042
▁Vadisi	-8043
▁dizinin	-8044
▁başarısı	-8045
arlık	-8046
▁Rek	-8047
▁Sky	-8048
ilecek	-8049
▁yarışı	-8050
▁Linux	-8051
▁tanınmış	-8052
▁şampiyonluk	-8053
tığını	-8054
▁Metro	-8055
▁Carol	-8056
▁olasılık	-8057
bro	-8058
▁Bunu	-8059
▁his	-8060
akları	-8061
▁istik	-8062
azarı	-8063
▁etmeyi	-8064
meli	-8065
▁Çam	-8066
▁fayd	-8067
▁Bağdat	-8068
KK	-8069
▁kurt	-8070
▁görünüm	-8071
▁Spr	-8072
▁Mike	-8073
▁Öğret	-8074
▁Çalışma	-8075
▁RD	-8076
▁Turizm	-8077
ığ	-8078
rugu	-8079
▁sip	-8080
▁büyüm	-8081
▁komünist	-8082
ode	-8083
ough	-8084
▁Ner	-8085
▁bulut	-8086
▁yumuş	-8087
▁Kırmızı	-8088
evin	-8089
▁Takımı	-8090
▁mahalledir	-8091
▁söylen	-8092
▁enfeksiyon	-8093
ymp	-8094
▁Elektrik	-8095
▁Lak	-8096
▁vad	-8097
▁kırsal	-8098
onna	-8099
madığı	-8100
▁detay	-8101
uğla	-8102
▁coğrafi	-8103
▁şiddetli	-8104
ated	-8105
▁Land	-8106
▁BĞMSZ	-8107
▁insanın	-8108
▁yakınlarındaki	-8109
▁Nih	-8110
malıdır	-8111
▁adının	-8112
ılmıştı	-8113
alat	-8114
▁Nikol	-8115
▁Kaynaklar	-8116
ıktan	-8117
▁Turu	-8118
▁aylık	-8119
▁kaldığı	-8120
aşır	-8121
kestra	-8122
▁getiren	-8123
▁uygulaması	-8124
▁İmparatoru	-8125
▁Teks	-8126
▁Çinli	-8127
▁maddeler	-8128
rut	-8129
şap	-8130
▁tarihindeki	-8131
▁Michel	-8132
ağanüstü	-8133
▁forması	-8134
▁kadrosu	-8135
▁iyon	-8136
agn	-8137
losu	-8138
alama	-8139
▁Bayram	-8140
▁Ov	-8141
▁Leh	-8142
▁Uğur	-8143
▁Festival	-8144
ES	-8145
▁sosy	-8146
▁ulaşan	-8147
▁Harvard	-8148
▁Tri	-8149
▁ideal	-8150
▁mutfağı	-8151
▁soruştur	-8152
▁üstünde	-8153
▁golünü	-8154
▁savaşa	-8155
itr	-8156
▁kaleme	-8157
▁kuruluşlar	-8158
▁Serbest	-8159
▁soylu	-8160
▁oğl	-8161
▁Evren	-8162
sına	-8163
▁Bot	-8164
▁fesh	-8165
▁Wrest	-8166
▁azın	-8167
▁İlişk	-8168
▁turizm	-8169
▁ağırlık	-8170
▁özgün	-8171
▁satışa	-8172
▁bölgedeki	-8173
▁uygulamaları	-8174
ido	-8175
kon	-8176
ıntılar	-8177
▁İnş	-8178
▁İslami	-8179
▁direniş	-8180
▁taşımaktadır	-8181
gy	-8182
ound	-8183
▁Alb	-8184
▁Open	-8185
▁çalıştığı	-8186
▁Oscar	-8187
▁olacağını	-8188
▁sabah	-8189
▁dilinde	-8190
▁fikr	-8191
▁Çelebi	-8192
▁yakalan	-8193
▁belirtir	-8194
▁Keş	-8195
▁Giresun	-8196
▁Inc	-8197
▁arasına	-8198
▁bol	-8199
▁öyk	-8200
▁mezhe	-8201
▁Ayr	-8202
shire	-8203
▁Disney	-8204
▁Harp	-8205
▁Malat	-8206
▁bozukluk	-8207
▁Savaşları	-8208
én	-8209
▁Hikâ	-8210
sas	-8211
raft	-8212
eysel	-8213
▁Tav	-8214
▁Tip	-8215
▁genetik	-8216
▁yapılmaktadır	-8217
▁Yavuz	-8218
▁edeb	-8219
cho	-8220
laj	-8221
▁çay	-8222
▁altıncı	-8223
▁sıradan	-8224
▁ondan	-8225
▁ülkelerin	-8226
▁Len	-8227
▁Maz	-8228
▁Saat	-8229
▁yılların	-8230
kun	-8231
▁Rah	-8232
▁Brun	-8233
akal	-8234
▁bilm	-8235
▁dakikada	-8236
gili	-8237
ragon	-8238
▁katman	-8239
▁Aleksand	-8240
▁müziğini	-8241
▁Girl	-8242
▁öngör	-8243
▁senesinde	-8244
urn	-8245
cast	-8246
▁darbe	-8247
▁önceleri	-8248
▁Shak	-8249
▁hikâye	-8250
▁ch	-8251
soci	-8252
▁caz	-8253
▁Başar	-8254
▁tıbbi	-8255
▁numara	-8256
PA	-8257
▁Wes	-8258
▁açıkça	-8259
▁Sinem	-8260
▁vererek	-8261
La	-8262
aux	-8263
▁toplama	-8264
ahattin	-8265
uto	-8266
▁bırakıldı	-8267
▁çalışmıştır	-8268
▁özerk	-8269
▁kıyısında	-8270
odi	-8271
▁Doc	-8272
▁ov	-8273
hard	-8274
▁okulu	-8275
▁protokol	-8276
▁organize	-8277
▁Lord	-8278
▁diğerleri	-8279
▁CF	-8280
▁alana	-8281
▁olsun	-8282
Man	-8283
▁AS	-8284
▁Fik	-8285
▁fant	-8286
▁değerli	-8287
▁beyin	-8288
▁savaşta	-8289
örneğin	-8290
ükemmel	-8291
▁Alfred	-8292
▁kelime	-8293
▁padişah	-8294
▁dokun	-8295
▁bildirdi	-8296
abilmesi	-8297
▁projesi	-8298
на	-8299
ior	-8300
▁Ford	-8301
▁kıyaf	-8302
▁görünür	-8303
TÜ	-8304
▁CE	-8305
▁aylarında	-8306
likte	-8307
▁ağırlıklı	-8308
▁bölgesinin	-8309
zy	-8310
▁Che	-8311
ox	-8312
▁fet	-8313
▁Askerî	-8314
▁Florida	-8315
▁Manastır	-8316
pan	-8317
▁bilimi	-8318
▁sunucu	-8319
▁kazanarak	-8320
lig	-8321
ste	-8322
▁Reich	-8323
▁Devletler	-8324
ebr	-8325
ves	-8326
▁alkol	-8327
▁Wilhelm	-8328
▁anlayış	-8329
▁konuşma	-8330
▁YouTube	-8331
▁bulunmayan	-8332
▁Parlamentosu	-8333
▁doğrult	-8334
▁girer	-8335
▁boyutlu	-8336
▁Yaklaşık	-8337
▁uf	-8338
▁Ars	-8339
▁fazl	-8340
▁oyunculu	-8341
rib	-8342
tuk	-8343
önü	-8344
Don	-8345
▁Tapın	-8346
▁rakam	-8347
▁yağış	-8348
▁şimdi	-8349
▁halkının	-8350
▁ülkeleri	-8351
ât	-8352
cası	-8353
▁Şek	-8354
▁Mans	-8355
▁Zir	-8356
▁English	-8357
▁felsefe	-8358
▁araçları	-8359
▁Napol	-8360
▁konferans	-8361
Mac	-8362
▁Cur	-8363
eland	-8364
▁ente	-8365
elerek	-8366
olitik	-8367
▁kurduğu	-8368
atları	-8369
▁Great	-8370
▁arama	-8371
lemektedir	-8372
bahar	-8373
iyeli	-8374
leks	-8375
▁Turk	-8376
▁Jersey	-8377
▁başbakan	-8378
▁Little	-8379
▁ödüllendir	-8380
▁uc	-8381
cent	-8382
▁Endon	-8383
▁edebilir	-8384
▁zamana	-8385
▁sığ	-8386
▁şeyi	-8387
▁Bilgisayar	-8388
▁Kaya	-8389
▁türet	-8390
▁takdir	-8391
▁Aşağıdaki	-8392
▁Hollywood	-8393
erse	-8394
▁Lud	-8395
▁Fotoğraf	-8396
▁gerekçesiyle	-8397
▁ilişkilendir	-8398
Sh	-8399
▁Kırgız	-8400
▁deneyim	-8401
▁Kaç	-8402
▁Light	-8403
▁kutusu	-8404
▁İranlı	-8405
▁dosy	-8406
▁serisinin	-8407
ebir	-8408
istleri	-8409
▁kalmış	-8410
▁kapsayan	-8411
Cumhur	-8412
▁Nan	-8413
▁Ret	-8414
edral	-8415
▁senaryo	-8416
▁materyal	-8417
▁Corn	-8418
▁Formula	-8419
▁malzeme	-8420
▁na	-8421
peten	-8422
usunu	-8423
▁düşen	-8424
▁temas	-8425
▁belirsiz	-8426
uar	-8427
olas	-8428
mediği	-8429
▁Koruma	-8430
rada	-8431
ğeri	-8432
▁kamera	-8433
şe	-8434
▁ANAP	-8435
▁başlayarak	-8436
▁pozitif	-8437
▁görülmüştür	-8438
▁Sony	-8439
▁Opera	-8440
▁tarihine	-8441
âz	-8442
▁Dead	-8443
▁dövüş	-8444
▁edilerek	-8445
▁önlemek	-8446
▁Ts	-8447
▁Elec	-8448
luğunun	-8449
achus	-8450
▁Brian	-8451
▁Teksas	-8452
▁yönetiminde	-8453
HA	-8454
teb	-8455
tanın	-8456
▁valisi	-8457
▁kristal	-8458
▁DSP	-8459
▁Sün	-8460
eleriyle	-8461
▁Mis	-8462
▁Manisa	-8463
▁Saldır	-8464
▁suikast	-8465
▁Çeşitli	-8466
▁kurgusal	-8467
▁yüzyıldan	-8468
▁aileden	-8469
▁oyunlar	-8470
▁Mahallesi	-8471
MD	-8472
▁Cav	-8473
▁anlamı	-8474
▁Columbia	-8475
▁Sid	-8476
feransı	-8477
▁Mahmud	-8478
▁Atletizm	-8479
▁partinin	-8480
▁Jr	-8481
embe	-8482
ediler	-8483
▁avantaj	-8484
▁toprakları	-8485
▁Nick	-8486
▁eren	-8487
▁Yaşar	-8488
▁Bakan	-8489
ahan	-8490
▁Us	-8491
▁soyun	-8492
▁yaptıkları	-8493
▁(?	-8494
▁Mob	-8495
▁önlem	-8496
▁Vel	-8497
iyorum	-8498
▁bulur	-8499
▁Yönetimi	-8500
▁Tren	-8501
▁düşünce	-8502
▁element	-8503
bot	-8504
▁Lyn	-8505
▁Salih	-8506
▁katılm	-8507
▁antlaş	-8508
▁benims	-8509
tero	-8510
▁Serv	-8511
▁Gun	-8512
▁Hız	-8513
▁ucu	-8514
▁ertesi	-8515
▁tanıtılan	-8516
nis	-8517
▁Harris	-8518
▁başladılar	-8519
üğü	-8520
BB	-8521
▁Buffy	-8522
▁tenis	-8523
▁Journal	-8524
ilmesiyle	-8525
pi	-8526
▁AFC	-8527
▁şub	-8528
▁Buda	-8529
▁Dark	-8530
▁tepk	-8531
▁anlatır	-8532
tle	-8533
ashi	-8534
▁Körfezi	-8535
gio	-8536
bach	-8537
hisar	-8538
▁Boş	-8539
malarına	-8540
▁Greg	-8541
▁döner	-8542
▁duruma	-8543
▁yetişkin	-8544
▁piyade	-8545
▁şarkıyı	-8546
▁harekete	-8547
luğuna	-8548
▁Yakın	-8549
▁memur	-8550
gamber	-8551
üye	-8552
▁Galerisi	-8553
eygamber	-8554
▁Hip	-8555
axy	-8556
▁saygı	-8557
▁Dip	-8558
▁Heart	-8559
▁Pasifik	-8560
ysa	-8561
▁Sk	-8562
lileri	-8563
▁komutan	-8564
▁yürüttü	-8565
▁çatışma	-8566
▁cumhurbaşkanı	-8567
IT	-8568
ükr	-8569
▁bulgu	-8570
▁roket	-8571
▁Demokrasi	-8572
▁mümkündür	-8573
▁End	-8574
dadır	-8575
▁eklen	-8576
▁Kitabı	-8577
▁yaralan	-8578
▁bulunmaktaydı	-8579
▁Dim	-8580
▁gösteri	-8581
▁sözleri	-8582
▁Beşinci	-8583
ym	-8584
▁Juan	-8585
▁ilerleyen	-8586
▁kariyerini	-8587
IN	-8588
aro	-8589
▁devleti	-8590
▁ülkesi	-8591
uşturucu	-8592
▁gösterdiği	-8593
ра	-8594
celona	-8595
▁beğen	-8596
amasına	-8597
hen	-8598
▁Ulu	-8599
▁Harekâ	-8600
▁başlıklı	-8601
▁Metal	-8602
▁yeter	-8603
▁çeyrek	-8604
▁Albümün	-8605
▁olmaktadır	-8606
cio	-8607
gâr	-8608
▁Kars	-8609
▁mitoloj	-8610
▁emek	-8611
ère	-8612
ouch	-8613
▁Puan	-8614
▁Instit	-8615
▁Alaska	-8616
▁Team	-8617
▁Karabağ	-8618
EA	-8619
▁Rıza	-8620
ruguay	-8621
▁sayfalar	-8622
bab	-8623
▁Spe	-8624
üvari	-8625
▁Yüksel	-8626
▁Under	-8627
▁hizmeti	-8628
orit	-8629
ürken	-8630
ımlar	-8631
▁çıkardığı	-8632
▁bulunuyordu	-8633
işik	-8634
▁Bülent	-8635
anya	-8636
▁Wilson	-8637
▁itibarı	-8638
▁vermeye	-8639
▁Mühendisliği	-8640
▁Sas	-8641
▁saldırısı	-8642
memiştir	-8643
çının	-8644
▁France	-8645
▁Kendisi	-8646
▁mor	-8647
▁biçimi	-8648
ladıktan	-8649
▁binlerce	-8650
ekte	-8651
sinin	-8652
▁Musa	-8653
▁anlaşmaz	-8654
▁hizmetleri	-8655
eğine	-8656
▁redded	-8657
▁vs	-8658
tikam	-8659
▁evli	-8660
▁uyum	-8661
▁Princ	-8662
cal	-8663
rand	-8664
▁Şir	-8665
simum	-8666
▁System	-8667
▁müdahal	-8668
zet	-8669
▁Mach	-8670
▁turu	-8671
▁yansıt	-8672
landırma	-8673
▁kuruluşu	-8674
▁Yapı	-8675
▁peş	-8676
▁Ailesi	-8677
▁Ash	-8678
▁Island	-8679
▁ard	-8680
atörü	-8681
▁lise	-8682
▁işgali	-8683
▁Konservat	-8684
SCO	-8685
▁Kongre	-8686
eller	-8687
▁zamanlı	-8688
▁Rub	-8689
imer	-8690
▁tüc	-8691
üsünü	-8692
▁İmam	-8693
▁Sayımı	-8694
▁bağımsızlığını	-8695
ras	-8696
şak	-8697
▁RA	-8698
▁Guy	-8699
▁tarif	-8700
▁Mov	-8701
▁üyelerinin	-8702
▁şirketin	-8703
?"	-8704
▁US	-8705
▁atıfta	-8706
▁saniye	-8707
▁terfi	-8708
▁yükselen	-8709
▁DC	-8710
gion	-8711
entbol	-8712
▁bölgesine	-8713
eum	-8714
ılaş	-8715
▁tör	-8716
▁gücünü	-8717
▁Nit	-8718
▁aziz	-8719
▁akrab	-8720
pag	-8721
▁Arist	-8722
▁kısalt	-8723
▁mekanik	-8724
▁Apol	-8725
▁Center	-8726
▁takıma	-8727
aci	-8728
ions	-8729
Türkçe	-8730
▁Prusya	-8731
▁İletişim	-8732
▁alması	-8733
▁dikkate	-8734
▁uyarlanan	-8735
wig	-8736
▁fa	-8737
▁Giz	-8738
▁Rab	-8739
▁bot	-8740
lıyor	-8741
▁Liver	-8742
ydu	-8743
ardım	-8744
Gün	-8745
eğiyle	-8746
▁Refah	-8747
▁kitaplar	-8748
▁Bilimleri	-8749
kins	-8750
▁konuda	-8751
ülmüştür	-8752
cha	-8753
▁salg	-8754
▁Hard	-8755
▁kolu	-8756
▁dü	-8757
▁cüm	-8758
▁lan	-8759
▁Kazak	-8760
▁değişen	-8761
ilmez	-8762
▁yansı	-8763
▁Normal	-8764
ebilmektedir	-8765
▁köl	-8766
▁çeken	-8767
▁bulunmuş	-8768
âl	-8769
▁By	-8770
▁Gh	-8771
▁Im	-8772
▁Hug	-8773
▁anne	-8774
▁tasarlanmış	-8775
ose	-8776
niyet	-8777
▁davul	-8778
▁editör	-8779
umi	-8780
▁Virg	-8781
ülmesi	-8782
▁Cengiz	-8783
▁Hart	-8784
▁Tech	-8785
▁Schw	-8786
şev	-8787
ende	-8788
▁Yurt	-8789
▁State	-8790
▁adamları	-8791
ahya	-8792
arag	-8793
http	-8794
▁Arda	-8795
▁kuru	-8796
▁Estonya	-8797
▁yazılımları	-8798
hale	-8799
▁Trak	-8800
ifornia	-8801
▁ahlak	-8802
▁sebebi	-8803
▁ayrılan	-8804
▁inç	-8805
abildi	-8806
▁binası	-8807
▁olanlar	-8808
▁bağımsızlık	-8809
▁Lef	-8810
uther	-8811
▁düzelt	-8812
ayolu	-8813
▁pp	-8814
▁Dör	-8815
▁üyeli	-8816
▁hayata	-8817
▁Şampiyonluğu	-8818
▁Mahmut	-8819
▁parçasıdır	-8820
▁oluşturmaktadır	-8821
aliz	-8822
phia	-8823
▁antrenör	-8824
▁sözü	-8825
▁turn	-8826
▁Barcelona	-8827
▁Geleneksel	-8828
▁tutuklandı	-8829
kara	-8830
▁Rot	-8831
▁bozul	-8832
▁siyasetçileri	-8833
ardi	-8834
▁spekt	-8835
▁Yüzölçümü	-8836
"),	-8837
▁Dic	-8838
▁Blue	-8839
▁öncü	-8840
▁nahiy	-8841
▁alıyor	-8842
▁istasyonu	-8843
ces	-8844
▁sandal	-8845
▁dönemlerde	-8846
▁Rize	-8847
siklop	-8848
ography	-8849
▁kitl	-8850
▁yaşamını	-8851
▁mahkûm	-8852
oka	-8853
▁Lam	-8854
▁Çank	-8855
▁Associ	-8856
▁Dönemi	-8857
İstanbul	-8858
âm	-8859
eto	-8860
beyaz	-8861
▁sayede	-8862
▁Geliştir	-8863
▁albümünde	-8864
▁düzenleme	-8865
▁arasındadır	-8866
▁alınarak	-8867
▁Başbakanı	-8868
elin	-8869
▁term	-8870
▁kemik	-8871
▁Başlangıçta	-8872
abir	-8873
▁borç	-8874
▁Japan	-8875
▁tüken	-8876
▁Carlos	-8877
▁alınır	-8878
▁piyano	-8879
▁anlatan	-8880
▁co	-8881
furt	-8882
tanı	-8883
ıklı	-8884
▁verim	-8885
olution	-8886
▁uzunluğu	-8887
▁sıfır	-8888
▁sh	-8889
ivan	-8890
yonu	-8891
▁Dost	-8892
▁oldular	-8893
▁karanlık	-8894
aham	-8895
▁Marie	-8896
▁Belçikalı	-8897
oke	-8898
▁nispeten	-8899
▁taraftar	-8900
endik	-8901
▁Olymp	-8902
▁mobil	-8903
▁sürgün	-8904
asıt	-8905
▁mod	-8906
ektif	-8907
▁satan	-8908
▁Galaxy	-8909
▁incelem	-8910
▁Lenin	-8911
▁konuşan	-8912
als	-8913
▁Rick	-8914
▁Ülke	-8915
MP	-8916
▁taşır	-8917
lığından	-8918
▁kişileri	-8919
▁şekli	-8920
▁mutlak	-8921
px	-8922
ée	-8923
▁kamer	-8924
▁Kle	-8925
▁Venez	-8926
▁Özerk	-8927
izy	-8928
etts	-8929
▁oyuna	-8930
sit	-8931
▁Vah	-8932
▁şef	-8933
▁Marg	-8934
▁gönüllü	-8935
yani	-8936
▁bölgeyi	-8937
▁derecesi	-8938
diki	-8939
▁Gece	-8940
▁arazi	-8941
▁Birkaç	-8942
▁isimleri	-8943
▁modeller	-8944
▁acı	-8945
▁yetenek	-8946
▁Köl	-8947
▁ikiye	-8948
▁Street	-8949
▁Otom	-8950
▁mali	-8951
▁sınırı	-8952
▁katliam	-8953
▁doğmuştur	-8954
▁С	-8955
▁alıp	-8956
sus	-8957
▁Öy	-8958
▁sınav	-8959
▁Selanik	-8960
▁takımda	-8961
Cumhuriyet	-8962
▁Kans	-8963
▁gerçekleştirdi	-8964
▁Anim	-8965
▁Şeri	-8966
▁Kid	-8967
▁Çelik	-8968
▁sosyalist	-8969
▁zincir	-8970
▁Kop	-8971
▁Libya	-8972
▁Villa	-8973
▁düzenlen	-8974
▁sağlamıştır	-8975
▁Seg	-8976
▁yam	-8977
ule	-8978
keli	-8979
▁darb	-8980
▁toz	-8981
osen	-8982
▁Doug	-8983
▁virüs	-8984
▁dersleri	-8985
▁görülebilir	-8986
anj	-8987
eview	-8988
▁Yemen	-8989
▁çekirde	-8990
erick	-8991
▁ölçüm	-8992
▁Donanması	-8993
▁Karaca	-8994
▁PA	-8995
▁Bayan	-8996
▁olayı	-8997
▁Cl	-8998
▁harc	-8999
▁İhsan	-9000
▁dönüşüm	-9001
▁yaparken	-9002
uts	-9003
▁maden	-9004
ülmüş	-9005
▁Düzen	-9006
achusetts	-9007
▁dayanmaktadır	-9008
KP	-9009
▁East	-9010
▁akıllı	-9011
▁amatör	-9012
▁macera	-9013
▁ligde	-9014
Arap	-9015
▁Müttefik	-9016
ciğer	-9017
▁olmuştu	-9018
▁şehrinin	-9019
▁Kızılder	-9020
▁Kırk	-9021
▁üyeliği	-9022
▁Liverpool	-9023
▁Sekreteri	-9024
ents	-9025
NESCO	-9026
▁etkiler	-9027
▁Conn	-9028
▁Kök	-9029
▁Berg	-9030
▁Hayvan	-9031
eyt	-9032
ohum	-9033
▁Fort	-9034
▁Od	-9035
laştırma	-9036
▁Caddesi	-9037
▁kelimesi	-9038
▁Class	-9039
▁kişiye	-9040
▁Dünyanın	-9041
▁×	-9042
▁fırsat	-9043
leştirme	-9044
▁albümde	-9045
▁bilgisi	-9046
▁olduğunda	-9047
veriş	-9048
lüğüne	-9049
▁finalinde	-9050
nat	-9051
▁atış	-9052
▁halen	-9053
▁Çalışmaları	-9054
▁qu	-9055
sburg	-9056
▁Başka	-9057
allenin	-9058
▁Divisi	-9059
▁müşter	-9060
▁filminin	-9061
arm	-9062
arn	-9063
▁Bing	-9064
▁José	-9065
▁unut	-9066
▁Lewis	-9067
▁imkân	-9068
masıdır	-9069
verengi	-9070
▁Milano	-9071
▁göçmen	-9072
▁Projesi	-9073
▁ilişkisi	-9074
▁kullanılm	-9075
▁Senar	-9076
▁programında	-9077
linik	-9078
owski	-9079
ayne	-9080
sını	-9081
▁MTV	-9082
▁Brad	-9083
▁Asyalı	-9084
EN	-9085
ürt	-9086
▁post	-9087
▁bulan	-9088
adelphia	-9089
în	-9090
urken	-9091
▁yapılacak	-9092
uhan	-9093
▁Zor	-9094
ıkları	-9095
▁Emre	-9096
▁Napolyon	-9097
▁söylemiştir	-9098
▁ahşap	-9099
ebb	-9100
ales	-9101
▁Eğit	-9102
▁takımyıldızı	-9103
▁ilerlem	-9104
▁başlanmıştır	-9105
▁Halep	-9106
▁köyde	-9107
▁sunuldu	-9108
ury	-9109
▁İbn	-9110
usuna	-9111
▁Teor	-9112
▁Siyasal	-9113
▁Massachusetts	-9114
Par	-9115
▁Tunç	-9116
▁yapılm	-9117
▁California	-9118
▁yöneticisi	-9119
▁teles	-9120
▁yargılan	-9121
▁doğrultusunda	-9122
▁Konu	-9123
▁Tayy	-9124
▁port	-9125
▁olmay	-9126
▁liberal	-9127
▁ediyordu	-9128
▁Yör	-9129
▁tanrısı	-9130
zu	-9131
azığ	-9132
▁Elem	-9133
▁tanrıç	-9134
BP	-9135
▁Ry	-9136
▁Hamil	-9137
▁birisidir	-9138
▁Broad	-9139
▁giymektedir	-9140
▁kuşlar	-9141
▁Jam	-9142
▁Kanunu	-9143
▁Okyanusu	-9144
▁belirlemek	-9145
utt	-9146
ektaş	-9147
▁Last	-9148
▁diplomatik	-9149
ento	-9150
icus	-9151
▁kimlik	-9152
▁kullanmak	-9153
oslov	-9154
▁Whit	-9155
▁anılan	-9156
▁belirtmiştir	-9157
iyev	-9158
▁görüle	-9159
▁metraj	-9160
▁yakınında	-9161
▁karşılıklı	-9162
▁→	-9163
▁kızıl	-9164
▁cemaat	-9165
▁Mam	-9166
makam	-9167
▁koyu	-9168
▁spons	-9169
▁Önemli	-9170
▁kavramı	-9171
▁Ut	-9172
▁cerrah	-9173
▁Hamburg	-9174
▁serileri	-9175
▁İrlandalı	-9176
yat	-9177
▁sonsuz	-9178
▁değişiklikler	-9179
▁oranda	-9180
▁görevlisi	-9181
iyen	-9182
▁Coun	-9183
▁Radio	-9184
▁köylü	-9185
▁Kütahya	-9186
▁Bisiklet	-9187
▁gazetesi	-9188
tom	-9189
eşme	-9190
▁ust	-9191
ional	-9192
▁Power	-9193
▁suçlu	-9194
▁uyumlu	-9195
alp	-9196
emon	-9197
▁Eric	-9198
▁Kraliçe	-9199
▁üstü	-9200
▁Grubun	-9201
▁eşcinsel	-9202
▁BTP	-9203
▁Soc	-9204
▁kül	-9205
▁Teşkil	-9206
▁Ly	-9207
▁Om	-9208
▁Ras	-9209
▁Roc	-9210
üsünde	-9211
▁Karaman	-9212
▁kütl	-9213
▁Timur	-9214
refektör	-9215
▁ağz	-9216
▁uygulanan	-9217
▁porn	-9218
▁çoğunu	-9219
▁yüzyıla	-9220
indedir	-9221
▁çam	-9222
▁sorunu	-9223
▁gelindi	-9224
▁kraliyet	-9225
▁Eth	-9226
▁esk	-9227
▁Franç	-9228
▁Meslek	-9229
▁uzaklıkta	-9230
▁Tasarım	-9231
jder	-9232
▁Mun	-9233
▁Uruguay	-9234
▁Konferansı	-9235
▁he	-9236
▁First	-9237
▁Story	-9238
▁hepsi	-9239
▁Kendi	-9240
▁İtalyanca	-9241
▁yedek	-9242
▁kullanıldığı	-9243
şah	-9244
onto	-9245
uzur	-9246
▁Fern	-9247
▁devir	-9248
▁frekans	-9249
▁Hareketi	-9250
▁maçın	-9251
leridir	-9252
ен	-9253
▁od	-9254
alisyon	-9255
▁tanındı	-9256
▁Hep	-9257
▁UNESCO	-9258
▁güvenli	-9259
▁Victoria	-9260
▁düzenledi	-9261
ego	-9262
gie	-9263
▁Vers	-9264
▁edici	-9265
▁bitkiler	-9266
▁bölümler	-9267
▁sistemin	-9268
▁Way	-9269
▁onar	-9270
▁çalışmaktadır	-9271
mekle	-9272
bus	-9273
▁tatlı	-9274
▁vilayet	-9275
▁bez	-9276
▁Emek	-9277
▁nişan	-9278
ılıyordu	-9279
mund	-9280
Büyük	-9281
▁hâlâ	-9282
▁komedy	-9283
▁atletleri	-9284
▁önemlidir	-9285
▁Zen	-9286
▁pul	-9287
▁arasından	-9288
▁Lady	-9289
▁zorluk	-9290
▁toplulu	-9291
▁albümünü	-9292
ats	-9293
▁Sta	-9294
▁Tra	-9295
ümrük	-9296
▁Peru	-9297
▁Abbas	-9298
▁gösterilen	-9299
olos	-9300
leket	-9301
▁Ivan	-9302
▁üste	-9303
▁Kevin	-9304
▁formasını	-9305
lash	-9306
▁Hur	-9307
▁len	-9308
opher	-9309
▁İçin	-9310
▁sıralam	-9311
▁Virginia	-9312
▁yayımlan	-9313
çü	-9314
sol	-9315
▁Tac	-9316
▁köt	-9317
▁yoktu	-9318
▁vermiş	-9319
rensi	-9320
vador	-9321
▁çocuklar	-9322
▁Fah	-9323
▁Hakan	-9324
▁geriye	-9325
▁Almanyası	-9326
apur	-9327
aster	-9328
▁kavuş	-9329
▁Kafkas	-9330
▁sonlarına	-9331
Öz	-9332
▁Ünlü	-9333
▁Cemal	-9334
▁anılır	-9335
▁cezası	-9336
▁Fon	-9337
usunun	-9338
▁Marks	-9339
▁vurgul	-9340
▁Ukraynalı	-9341
▁psikolojik	-9342
hay	-9343
▁),	-9344
▁Hann	-9345
▁kısaca	-9346
▁kurulması	-9347
uch	-9348
▁skor	-9349
▁pandem	-9350
▁geldiğinde	-9351
▁rez	-9352
▁Elazığ	-9353
▁Karakter	-9354
▁Num	-9355
▁Raw	-9356
▁netic	-9357
▁Dairesi	-9358
▁Değer	-9359
▁buhar	-9360
▁evr	-9361
eveyn	-9362
anlarını	-9363
▁hakimiyet	-9364
çili	-9365
▁evlili	-9366
▁Orijinal	-9367
▁Bow	-9368
▁lev	-9369
▁Cilt	-9370
itleri	-9371
▁liste	-9372
▁yerleşti	-9373
ecilik	-9374
▁alınması	-9375
▁seçilmiş	-9376
▁boks	-9377
▁Ez	-9378
ayıt	-9379
iano	-9380
▁Endonezya	-9381
▁CON	-9382
▁okyan	-9383
▁İbran	-9384
atom	-9385
beri	-9386
irya	-9387
elendi	-9388
▁Biyografi	-9389
▁faaliyetleri	-9390
OM	-9391
incan	-9392
övaly	-9393
▁gereği	-9394
▁Philadelphia	-9395
▁icra	-9396
▁meslek	-9397
▁ayrılarak	-9398
▁Yahudiler	-9399
▁format	-9400
▁bebek	-9401
ds	-9402
▁News	-9403
▁Türkçeye	-9404
tia	-9405
▁vit	-9406
▁bellek	-9407
▁kaybed	-9408
▁zırhlı	-9409
▁destekleyen	-9410
▁asla	-9411
▁Tokat	-9412
▁Çetin	-9413
och	-9414
ğim	-9415
▁açan	-9416
▁sistemine	-9417
mad	-9418
irüs	-9419
▁tayin	-9420
▁Twitter	-9421
▁öldürdü	-9422
▁Alev	-9423
tikleri	-9424
▁hayran	-9425
▁Bilgiler	-9426
▁gelindiğinde	-9427
lıktan	-9428
▁Roger	-9429
▁arayüz	-9430
haz	-9431
oviç	-9432
▁Malta	-9433
▁vefat	-9434
▁yaban	-9435
▁anlatı	-9436
▁sertif	-9437
das	-9438
▁Arke	-9439
▁Xbox	-9440
▁gelişmeler	-9441
mark	-9442
▁makale	-9443
▁çekilmiştir	-9444
▁işi	-9445
▁Band	-9446
▁İnan	-9447
Hersek	-9448
▁getirir	-9449
tım	-9450
▁Wik	-9451
▁Özgürlük	-9452
ej	-9453
▁sıkı	-9454
▁mineral	-9455
▁saldırıya	-9456
IC	-9457
▁bilinmeyen	-9458
ben	-9459
dent	-9460
▁Moz	-9461
▁Şirketi	-9462
▁ال	-9463
▁row	-9464
geler	-9465
▁Allen	-9466
▁sanay	-9467
▁bulmak	-9468
▁Çağdaş	-9469
▁YSK	-9470
luluk	-9471
▁işleri	-9472
▁geliştirilmiş	-9473
act	-9474
çın	-9475
şun	-9476
▁Henri	-9477
▁America	-9478
▁Kanat	-9479
▁niteli	-9480
▁kaldırıldı	-9481
▁birbirinden	-9482
▁Chi	-9483
▁Rio	-9484
▁That	-9485
▁Miller	-9486
oss	-9487
▁hipot	-9488
▁süreçte	-9489
▁Küba	-9490
▁olduklarını	-9491
▁muhalefet	-9492
Star	-9493
▁ziyade	-9494
oe	-9495
ebook	-9496
▁rakibi	-9497
▁Müslümanlar	-9498
▁topraklarına	-9499
▁Exp	-9500
▁Köyü	-9501
▁yapay	-9502
▁ka	-9503
Avrup	-9504
sızın	-9505
▁Mill	-9506
▁Doğal	-9507
▁Afyon	-9508
lüğünde	-9509
▁Muhafız	-9510
▁Chap	-9511
▁ayırt	-9512
▁müdürü	-9513
▁düşünür	-9514
▁arkasında	-9515
rig	-9516
clop	-9517
ünce	-9518
▁Who	-9519
▁yangın	-9520
▁kub	-9521
▁Bayrak	-9522
div	-9523
atus	-9524
ahisar	-9525
▁Turgut	-9526
▁Önceki	-9527
▁açıklama	-9528
▁romanlar	-9529
örler	-9530
▁ülkeye	-9531
▁Sakarya	-9532
▁kolayca	-9533
▁yedinci	-9534
▁sonraları	-9535
AK	-9536
cül	-9537
maların	-9538
▁İzlanda	-9539
htm	-9540
▁Key	-9541
▁Profili	-9542
▁rowspan	-9543
▁Yarımadası	-9544
As	-9545
▁Tug	-9546
öyl	-9547
öh	-9548
▁PC	-9549
▁Başk	-9550
anlarına	-9551
▁şunları	-9552
▁üstlendiği	-9553
bis	-9554
gül	-9555
▁Ces	-9556
▁işlemi	-9557
ogo	-9558
bury	-9559
orta	-9560
sinde	-9561
▁Annesi	-9562
▁nez	-9563
▁Siyah	-9564
▁gelebilir	-9565
▁Ruslar	-9566
▁uğradı	-9567
▁Science	-9568
ânı	-9569
▁Rak	-9570
▁Kuşat	-9571
▁ürünü	-9572
▁mesl	-9573
▁Fark	-9574
▁kuantum	-9575
▁yönetici	-9576
▁Liz	-9577
FL	-9578
eley	-9579
▁Gur	-9580
▁Mahalle	-9581
omut	-9582
▁Cry	-9583
undur	-9584
▁yıldır	-9585
▁olmalıdır	-9586
▁Mot	-9587
avuş	-9588
▁sek	-9589
▁Tayyip	-9590
▁Çekoslov	-9591
öyük	-9592
▁Hop	-9593
▁hop	-9594
▁lez	-9595
▁sad	-9596
agram	-9597
▁canlandırdı	-9598
▁Sicilya	-9599
AP	-9600
EM	-9601
edat	-9602
lılı	-9603
Rusça	-9604
▁doku	-9605
▁Enerji	-9606
▁Hakları	-9607
▁Cihaz	-9608
▁sonuçlandı	-9609
boy	-9610
▁DP	-9611
▁Cum	-9612
▁Yat	-9613
▁Mang	-9614
▁Stock	-9615
ettebat	-9616
▁bakter	-9617
▁Cul	-9618
▁Demografi	-9619
Ne	-9620
▁Mavi	-9621
▁kims	-9622
▁algorit	-9623
▁etkileşim	-9624
zar	-9625
uston	-9626
▁sistemini	-9627
oker	-9628
▁Adolf	-9629
▁Corpor	-9630
TS	-9631
▁Sap	-9632
▁eklem	-9633
▁eleştiriler	-9634
▁Lük	-9635
▁hom	-9636
▁pasaport	-9637
▁güreşçiler	-9638
▁Got	-9639
▁Kiev	-9640
▁Yang	-9641
▁GP	-9642
▁Fab	-9643
ispor	-9644
▁türler	-9645
▁mitolojisi	-9646
bank	-9647
cinin	-9648
▁mesel	-9649
▁yarışma	-9650
▁biyolojik	-9651
ediğini	-9652
▁otobüs	-9653
▁yağmur	-9654
.”	-9655
dön	-9656
zim	-9657
▁akars	-9658
▁canlandırdığı	-9659
ptom	-9660
▁Dog	-9661
▁Koc	-9662
▁Tif	-9663
▁Rand	-9664
▁Network	-9665
▁dayanır	-9666
▁direktörü	-9667
▁ekonomisi	-9668
▁gerektiği	-9669
▁alanlarında	-9670
▁Ley	-9671
▁Meş	-9672
▁başlay	-9673
▁hassas	-9674
cin	-9675
ruklu	-9676
▁Anayas	-9677
▁dağıtım	-9678
▁Steven	-9679
▁özgürlük	-9680
hone	-9681
ely	-9682
asyonlar	-9683
vo	-9684
tiy	-9685
adın	-9686
oann	-9687
▁ağız	-9688
sed	-9689
▁Kin	-9690
▁büyüy	-9691
▁motoru	-9692
▁profesörü	-9693
▁Bronz	-9694
MÖ	-9695
dol	-9696
▁yazan	-9697
▁sanatı	-9698
▁bunları	-9699
▁cezasına	-9700
ape	-9701
▁DJ	-9702
▁Fet	-9703
▁kıv	-9704
▁HD	-9705
mekten	-9706
▁Belgrad	-9707
▁içeriyordu	-9708
ülf	-9709
▁yumur	-9710
uer	-9711
ktan	-9712
▁Kartal	-9713
▁Kastam	-9714
▁Dördüncü	-9715
▁Ya	-9716
▁sız	-9717
▁cisim	-9718
▁kişiyi	-9719
▁gerçekten	-9720
▁liderleri	-9721
not	-9722
ingen	-9723
▁dava	-9724
eliyat	-9725
▁mezunudur	-9726
▁kuvvetlerinin	-9727
kie	-9728
▁Anthony	-9729
▁kıyasla	-9730
▁müdahale	-9731
▁Fall	-9732
▁astero	-9733
▁toplanan	-9734
dılar	-9735
Ben	-9736
idin	-9737
▁Geliş	-9738
▁matematikçi	-9739
▁Bod	-9740
▁Pep	-9741
▁rejim	-9742
▁bakanı	-9743
▁keşfet	-9744
akta	-9745
▁Dec	-9746
▁usul	-9747
kestrası	-9748
▁açılmıştır	-9749
Un	-9750
▁Simp	-9751
▁deng	-9752
ıcılar	-9753
Ak	-9754
ual	-9755
▁Tas	-9756
amanın	-9757
▁Kurgu	-9758
▁maddi	-9759
▁planı	-9760
▁dışına	-9761
▁istediği	-9762
▁seçimler	-9763
▁yarışmacıları	-9764
▁Phy	-9765
▁büyüdü	-9766
▁Selçuk	-9767
▁Hakkında	-9768
▁tanımlanır	-9769
ekom	-9770
▁NASA	-9771
▁With	-9772
▁boşluk	-9773
▁komuta	-9774
▁İşleri	-9775
oğulları	-9776
▁gençlik	-9777
▁ödüller	-9778
hou	-9779
▁dö	-9780
ozom	-9781
▁Rud	-9782
▁meyve	-9783
▁Venezuel	-9784
▁çıkarılan	-9785
▁çalışırken	-9786
▁Tot	-9787
asti	-9788
▁Seferi	-9789
ıköy	-9790
▁far	-9791
▁Cop	-9792
egatif	-9793
▁denem	-9794
▁adalet	-9795
▁çekici	-9796
mr	-9797
▁Eğitimi	-9798
hew	-9799
ense	-9800
utin	-9801
▁gecik	-9802
▁istihbarat	-9803
mus	-9804
ming	-9805
▁Ric	-9806
▁Gust	-9807
▁Charlie	-9808
üydü	-9809
▁nam	-9810
▁algıl	-9811
▁okuma	-9812
paganda	-9813
▁sahneye	-9814
▁Yolu	-9815
▁Official	-9816
▁tarihçiler	-9817
▁İspanyolca	-9818
▁Down	-9819
▁website	-9820
▁İttifakı	-9821
yem	-9822
érica	-9823
▁inter	-9824
▁Yalnız	-9825
▁hükümdarı	-9826
▁mahallesi	-9827
oria	-9828
laşmış	-9829
▁ilindeki	-9830
ente	-9831
▁eşy	-9832
▁bilinç	-9833
▁Kaptan	-9834
▁vektör	-9835
▁görevden	-9836
mm	-9837
és	-9838
▁yav	-9839
▁Gabri	-9840
▁laboratuvar	-9841
▁hır	-9842
▁konumunda	-9843
▁mühendisliği	-9844
ourt	-9845
siye	-9846
orlar	-9847
▁deri	-9848
▁Şehri	-9849
▁valign	-9850
▁Avrupalı	-9851
ote	-9852
▁göğ	-9853
athan	-9854
▁kere	-9855
▁Albay	-9856
menleri	-9857
▁mükemmel	-9858
▁gr	-9859
▁Hin	-9860
▁Mul	-9861
▁albümüdür	-9862
▁Üyeliği	-9863
▁Road	-9864
▁atmosfer	-9865
▁anlamında	-9866
uble	-9867
▁koç	-9868
▁Öte	-9869
▁Beni	-9870
▁Kont	-9871
▁femin	-9872
▁Gözlem	-9873
▁federal	-9874
▁çıkarak	-9875
▁ülkeden	-9876
▁döneminin	-9877
lia	-9878
osp	-9879
▁koydu	-9880
▁girerek	-9881
▁yumuşak	-9882
,"	-9883
▁mesafe	-9884
▁Gazetesi	-9885
▁üstlenmiştir	-9886
▁Sınır	-9887
▁rahip	-9888
▁dizisinin	-9889
▁Mim	-9890
▁karşıt	-9891
▁kus	-9892
gesel	-9893
▁Alice	-9894
▁milli	-9895
▁atmıştır	-9896
▁silindir	-9897
zig	-9898
▁Tuğ	-9899
▁Yüzyıl	-9900
▁madaly	-9901
▁kullanılmaya	-9902
▁Pale	-9903
▁parmak	-9904
elenmiştir	-9905
▁ağı	-9906
▁Müca	-9907
-),	-9908
tıraş	-9909
▁Medya	-9910
▁galaks	-9911
▁edebiyatı	-9912
ор	-9913
jan	-9914
▁XX	-9915
oshi	-9916
▁pratik	-9917
▁çözünür	-9918
▁tarihinden	-9919
▁Cro	-9920
▁Vokal	-9921
▁miras	-9922
▁girdiği	-9923
▁harekât	-9924
▁yürüyüş	-9925
▁katılmış	-9926
▁demokratik	-9927
▁açar	-9928
▁geril	-9929
▁Denizli	-9930
▁ürünler	-9931
▁gelişimi	-9932
▁kanalında	-9933
▁yaralandı	-9934
▁tamamlandı	-9935
▁Hell	-9936
▁Pres	-9937
▁kadının	-9938
▁referans	-9939
▁olmasından	-9940
▁bölgesindeki	-9941
CAF	-9942
dus	-9943
▁gemileri	-9944
▁birbirlerine	-9945
leye	-9946
▁yeğ	-9947
rence	-9948
▁hakem	-9949
▁tutar	-9950
▁çıkarıldı	-9951
▁geliştirdi	-9952
lum	-9953
▁Py	-9954
▁Arslan	-9955
▁kökeni	-9956
▁uyuşturucu	-9957
ар	-9958
▁François	-9959
▁tartışma	-9960
▁zamandan	-9961
▁ulaşmıştır	-9962
has	-9963
sell	-9964
▁verimli	-9965
▁Üzerine	-9966
▁Güneydoğu	-9967
anmış	-9968
▁Nuri	-9969
▁zaten	-9970
▁Erzincan	-9971
▁Turan	-9972
▁hoc	-9973
▁Otto	-9974
▁yıldan	-9975
▁Köprüsü	-9976
▁olmaması	-9977
▁dizide	-9978
▁saltan	-9979
▁yoluna	-9980
▁Şarkının	-9981
üvey	-9982
▁ömür	-9983
▁kurmak	-9984
▁Jacques	-9985
▁mus	-9986
▁Jacob	-9987
▁Farsça	-9988
▁tanesi	-9989
abe	-9990
▁Dili	-9991
▁politika	-9992
▁Š	-9993
tika	-9994
ramanı	-9995
▁fizikçi	-9996
aye	-9997
▁mağaz	-9998
▁German	-9999
▁Malatya	-10000
▁Prot	-10001
▁enstr	-10002
▁América	-10003
▁alanına	-10004
▁şarkısıyla	-10005
ğuna	-10006
ğimiz	-10007
▁düşüş	-10008
▁Şanlı	-10009
▁yüksekliği	-10010
▁А	-10011
Gen	-10012
▁vah	-10013
▁aşık	-10014
▁soru	-10015
▁Meksikalı	-10016
▁Ele	-10017
▁Pin	-10018
▁Shan	-10019
▁Zeki	-10020
▁endiş	-10021
▁izlen	-10022
▁eserinde	-10023
Sp	-10024
iyye	-10025
ness	-10026
▁avcı	-10027
▁birine	-10028
▁dayanarak	-10029
Ay	-10030
echt	-10031
yona	-10032
eliler	-10033
▁defans	-10034
▁geçiren	-10035
unum	-10036
▁kok	-10037
▁Ball	-10038
▁istil	-10039
▁optik	-10040
▁Kahire	-10041
arşova	-10042
suzluk	-10043
▁Bag	-10044
▁küç	-10045
▁Davis	-10046
▁bağır	-10047
▁Hugo	-10048
▁altyapı	-10049
▁tanımlar	-10050
▁güvenilir	-10051
elekt	-10052
▁sağlan	-10053
▁Toronto	-10054
▁yolları	-10055
▁Corporation	-10056
▁Eleme	-10057
▁eklendi	-10058
▁yoğunluğu	-10059
onca	-10060
▁Bahç	-10061
▁Kant	-10062
▁Tuna	-10063
▁zamanı	-10064
▁gelerek	-10065
▁deneysel	-10066
▁Endü	-10067
▁moda	-10068
eciler	-10069
▁River	-10070
▁Patrick	-10071
▁om	-10072
▁Ped	-10073
▁eğlence	-10074
▁savundu	-10075
▁kazanmış	-10076
▁parçalar	-10077
▁krom	-10078
▁kaydı	-10079
▁Museum	-10080
rog	-10081
▁Pho	-10082
anlarından	-10083
▁basketbolcu	-10084
DD	-10085
▁Ceb	-10086
cadem	-10087
ettin	-10088
▁Portekizli	-10089
ayol	-10090
▁Arsen	-10091
Söz	-10092
▁meyv	-10093
▁Produc	-10094
ás	-10095
▁PKK	-10096
▁gül	-10097
▁Rumen	-10098
▁Samuel	-10099
▁sıraya	-10100
▁yapımcılığını	-10101
▁yayımlanmıştır	-10102
▁Eg	-10103
Avrupa	-10104
▁krizi	-10105
▁kategorisinde	-10106
▁His	-10107
▁Murad	-10108
▁noktada	-10109
.:	-10110
müştü	-10111
▁Sound	-10112
▁yuvar	-10113
▁yolculuk	-10114
▁redde	-10115
▁sayfa	-10116
ader	-10117
stri	-10118
▁Eug	-10119
▁Gec	-10120
▁Lov	-10121
▁Efes	-10122
▁sessiz	-10123
▁tablosu	-10124
leştirilmiş	-10125
avv	-10126
▁uyarı	-10127
▁defter	-10128
▁mevsim	-10129
▁formasıyla	-10130
niz	-10131
omon	-10132
onne	-10133
▁üzüm	-10134
▁uğrat	-10135
▁Batman	-10136
▁diğeri	-10137
▁iskel	-10138
▁yaratı	-10139
▁Kadro	-10140
▁Kocaeli	-10141
tandard	-10142
▁Bolşev	-10143
▁olmayı	-10144
▁kaynaklanan	-10145
▁Burg	-10146
▁Four	-10147
▁Warner	-10148
▁GS	-10149
▁Soğuk	-10150
▁ayrılmış	-10151
▁olursa	-10152
▁Kob	-10153
▁Karşı	-10154
▁topladı	-10155
▁taz	-10156
▁Back	-10157
▁Oyuncusu	-10158
▁Christopher	-10159
ogen	-10160
▁Veg	-10161
press	-10162
▁Fair	-10163
▁gelişme	-10164
▁Anderson	-10165
▁Hamilton	-10166
EF	-10167
jin	-10168
ılacak	-10169
▁yanlısı	-10170
şek	-10171
▁Sudan	-10172
▁Chel	-10173
▁Napoli	-10174
▁imzalanan	-10175
jo	-10176
▁Nag	-10177
▁muhalif	-10178
AC	-10179
sea	-10180
enter	-10181
▁başkanlığını	-10182
▁jüri	-10183
▁eşleş	-10184
▁kalıp	-10185
▁Tayland	-10186
▁dönüştü	-10187
▁HP	-10188
▁verileri	-10189
On	-10190
▁Ow	-10191
▁ismiyle	-10192
▁biçiminde	-10193
▁ettikleri	-10194
▁olmasıdır	-10195
uran	-10196
▁Bür	-10197
tikçe	-10198
▁Fant	-10199
▁hasta	-10200
▁ihlal	-10201
val	-10202
▁küme	-10203
▁División	-10204
▁Frankfurt	-10205
▁albümünün	-10206
▁kalabalık	-10207
▁Beat	-10208
▁cinsi	-10209
▁Facebook	-10210
▁kanalları	-10211
▁değişir	-10212
▁yürürlüğe	-10213
▁püs	-10214
▁dahi	-10215
▁verme	-10216
▁gönderilen	-10217
▁yapımcıları	-10218
laz	-10219
▁Pay	-10220
▁kömür	-10221
▁yapıt	-10222
▁Single	-10223
▁Bernard	-10224
▁Varşova	-10225
▁yenilik	-10226
ılmasından	-10227
▁Glob	-10228
▁devral	-10229
▁süredir	-10230
kurmay	-10231
▁liderliğindeki	-10232
▁ag	-10233
sever	-10234
▁Muğla	-10235
▁kasaba	-10236
▁Mimarlık	-10237
▁değiştirdi	-10238
▁kolaylaştır	-10239
real	-10240
▁Komp	-10241
▁vade	-10242
▁Danış	-10243
▁görevinde	-10244
▁konut	-10245
▁Üyesi	-10246
▁yönetti	-10247
▁İngilizler	-10248
▁Imp	-10249
▁gibidir	-10250
▁yapılandır	-10251
▁Lisans	-10252
▁Tiflis	-10253
▁tanıştı	-10254
haus	-10255
▁güv	-10256
▁Jung	-10257
▁İsviçreli	-10258
▁Kuv	-10259
▁bulunması	-10260
▁kuruluşları	-10261
▁Özellikleri	-10262
holm	-10263
▁Old	-10264
burgh	-10265
▁Adnan	-10266
▁Media	-10267
▁Polit	-10268
▁üreten	-10269
lins	-10270
▁Stone	-10271
▁Ürdün	-10272
▁Dah	-10273
▁Hatay	-10274
▁Marsh	-10275
▁kaynaklı	-10276
▁mühendislik	-10277
culuğu	-10278
▁bayrağı	-10279
▁Programı	-10280
ıçak	-10281
▁Jay	-10282
▁Araç	-10283
▁Kenan	-10284
▁İnşaat	-10285
▁Popüler	-10286
▁aşaması	-10287
▁bunlardan	-10288
▁olağanüstü	-10289
Son	-10290
▁Politik	-10291
▁olacağı	-10292
▁gerekmektedir	-10293
MC	-10294
▁Ze	-10295
▁Dans	-10296
▁Emp	-10297
▁Gam	-10298
▁Death	-10299
▁çelik	-10300
▁sonlandır	-10301
retti	-10302
▁zemin	-10303
▁puanla	-10304
▁Hâ	-10305
üfett	-10306
amalar	-10307
artman	-10308
evî	-10309
üsüne	-10310
▁döng	-10311
▁ikil	-10312
▁tabi	-10313
▁Hikmet	-10314
▁mantık	-10315
!"	-10316
▁tanık	-10317
▁hükümet	-10318
ár	-10319
Ger	-10320
▁şeri	-10321
▁perde	-10322
anlardan	-10323
▁sendromu	-10324
non	-10325
▁AR	-10326
eski	-10327
▁Ferr	-10328
eyerek	-10329
▁görevleri	-10330
ezid	-10331
▁Kolombiya	-10332
▁örnekleri	-10333
▁uzaklaştır	-10334
▁prodüksiyon	-10335
▁programlama	-10336
▁Ful	-10337
▁Milan	-10338
▁yönde	-10339
▁Kilise	-10340
▁Studios	-10341
enos	-10342
cyclop	-10343
▁çerçevesinde	-10344
dia	-10345
▁Ri	-10346
▁Tig	-10347
▁muk	-10348
ector	-10349
▁Norveçli	-10350
▁getirilmiştir	-10351
sman	-10352
▁Madonna	-10353
▁niyet	-10354
▁İlhan	-10355
gas	-10356
sın	-10357
here	-10358
oban	-10359
▁Uygur	-10360
▁akşam	-10361
▁çarptır	-10362
▁tamamlayan	-10363
içesi	-10364
▁Disc	-10365
azakâr	-10366
▁şarkıcısı	-10367
▁Wer	-10368
▁kutup	-10369
▁motorlu	-10370
▁maksimum	-10371
leg	-10372
▁Ital	-10373
▁Baraj	-10374
▁ikamet	-10375
▁İstih	-10376
▁Abdülham	-10377
▁Slovenya	-10378
▁Danimarkalı	-10379
▁Ji	-10380
▁Hakkı	-10381
anlarda	-10382
▁üstüne	-10383
melerini	-10384
▁matematiksel	-10385
tury	-10386
▁evi	-10387
▁Dede	-10388
ikatür	-10389
maması	-10390
▁taslak	-10391
▁diplomat	-10392
▁gereksin	-10393
▁politikası	-10394
▁Hub	-10395
▁Rose	-10396
▁Almanlar	-10397
ovo	-10398
çer	-10399
▁klibi	-10400
▁veril	-10401
▁Şev	-10402
▁sahib	-10403
▁anlaşması	-10404
▁Anı	-10405
osunda	-10406
▁Space	-10407
▁İlköğretim	-10408
▁bon	-10409
▁Mold	-10410
▁Bakır	-10411
▁deplasman	-10412
riyet	-10413
▁özelliklerini	-10414
score	-10415
▁araba	-10416
▁ekipman	-10417
▁yakından	-10418
▁olmasının	-10419
▁Burs	-10420
▁Stüdyo	-10421
:"	-10422
diye	-10423
▁müh	-10424
odon	-10425
▁Now	-10426
ipedia	-10427
▁helik	-10428
▁terimleri	-10429
▁Cir	-10430
tendo	-10431
▁Mari	-10432
▁huzur	-10433
hendisi	-10434
▁analizi	-10435
▁Yahudilerin	-10436
▁klas	-10437
▁British	-10438
▁aldılar	-10439
▁getirmiştir	-10440
celi	-10441
isch	-10442
▁Süm	-10443
maktan	-10444
▁gelişen	-10445
▁belirlenen	-10446
acağına	-10447
▁çevresi	-10448
▁Kastamonu	-10449
iciler	-10450
▁fikri	-10451
▁orkestra	-10452
livan	-10453
▁André	-10454
▁buzul	-10455
▁sevgil	-10456
▁kadrosunda	-10457
demli	-10458
▁imha	-10459
▁yaşar	-10460
▁kentin	-10461
▁tanımlamak	-10462
▁Özbekistan	-10463
▁Bec	-10464
liydi	-10465
▁kimi	-10466
▁Meydanı	-10467
▁Sayf	-10468
semburg	-10469
▁organik	-10470
▁belirlenmiştir	-10471
▁atf	-10472
▁Dijital	-10473
rüb	-10474
▁Franz	-10475
▁Geniş	-10476
▁kopya	-10477
ıldığını	-10478
▁Bea	-10479
▁alay	-10480
▁macer	-10481
▁hareketleri	-10482
gâh	-10483
▁Güz	-10484
ektörü	-10485
▁işleme	-10486
▁uygulamalar	-10487
▁be	-10488
▁th	-10489
▁Abb	-10490
▁eksen	-10491
aria	-10492
ubuk	-10493
▁Nich	-10494
▁Celal	-10495
▁alacak	-10496
▁büyüme	-10497
▁kurban	-10498
▁Rh	-10499
bolu	-10500
▁dis	-10501
▁Eren	-10502
▁keskin	-10503
▁Association	-10504
▁Uçak	-10505
▁delik	-10506
▁evine	-10507
▁kilit	-10508
▁bağlantısı	-10509
▁Sahne	-10510
▁örgütü	-10511
melerine	-10512
lix	-10513
este	-10514
opot	-10515
▁Girit	-10516
▁Karar	-10517
▁Miras	-10518
▁istis	-10519
▁geçtiği	-10520
▁tarihî	-10521
▁Moon	-10522
ograph	-10523
▁dönemine	-10524
uli	-10525
▁sesi	-10526
▁şansı	-10527
▁disiplin	-10528
▁Mühendislik	-10529
ns	-10530
nep	-10531
ilmesinin	-10532
▁başlangıc	-10533
▁dünyadaki	-10534
▁IP	-10535
ilet	-10536
▁pah	-10537
dinde	-10538
▁mağar	-10539
▁kariyerinin	-10540
eçen	-10541
▁Boh	-10542
▁uçakları	-10543
ju	-10544
▁marş	-10545
▁ihrac	-10546
ер	-10547
çuk	-10548
▁Hand	-10549
▁birç	-10550
▁gide	-10551
▁Porto	-10552
▁bestel	-10553
▁devamı	-10554
▁Holding	-10555
▁geldiğini	-10556
▁parlamento	-10557
cle	-10558
iha	-10559
▁Lé	-10560
▁Dolay	-10561
▁İstik	-10562
▁denetim	-10563
aver	-10564
▁otel	-10565
▁alınmış	-10566
▁hanedan	-10567
▁iletken	-10568
▁Parlamento	-10569
lini	-10570
odyum	-10571
▁Amaz	-10572
▁Nadir	-10573
▁Tümen	-10574
▁yoksul	-10575
▁Fransızlar	-10576
▁çocukların	-10577
td	-10578
tro	-10579
view	-10580
▁Arts	-10581
distan	-10582
▁Antak	-10583
▁Child	-10584
▁Halkçı	-10585
▁katılır	-10586
▁uzunluk	-10587
öylelikle	-10588
▁belirlen	-10589
▁topluluğu	-10590
şı	-10591
acy	-10592
arik	-10593
imon	-10594
▁Eki	-10595
▁Pel	-10596
azlar	-10597
oment	-10598
▁pişir	-10599
▁çak	-10600
▁baskısı	-10601
▁Şampiyonu	-10602
▁aşamasında	-10603
gah	-10604
yas	-10605
amuk	-10606
▁Home	-10607
▁Prag	-10608
sm	-10609
▁Jin	-10610
▁Shin	-10611
▁uzmanı	-10612
▁Yeniden	-10613
▁sunulan	-10614
▁Komutanı	-10615
▁kullanmıştır	-10616
ML	-10617
wan	-10618
▁teleskop	-10619
worth	-10620
▁besin	-10621
▁fosil	-10622
▁rengi	-10623
▁püskür	-10624
▁Kadıköy	-10625
▁otomobiller	-10626
▁XV	-10627
▁Ziya	-10628
▁soğut	-10629
▁konumu	-10630
▁Afrikan	-10631
▁Filmografisi	-10632
esk	-10633
eyz	-10634
▁Giovan	-10635
▁birincil	-10636
kö	-10637
âb	-10638
▁Pur	-10639
▁Ryan	-10640
lılığı	-10641
▁sipar	-10642
▁Astron	-10643
▁miktarı	-10644
ui	-10645
dorf	-10646
▁Muk	-10647
▁Yani	-10648
▁Giriş	-10649
▁Wrestling	-10650
Fransız	-10651
▁Deb	-10652
▁şefi	-10653
▁Fırat	-10654
▁Panzer	-10655
▁Tag	-10656
▁işler	-10657
alarıyla	-10658
▁sorunlar	-10659
▁öncelikle	-10660
▁PS	-10661
erin	-10662
▁isteği	-10663
oud	-10664
ıplak	-10665
▁İstatistikleri	-10666
▁Cey	-10667
aklık	-10668
▁Well	-10669
▁atarak	-10670
▁tırman	-10671
▁kadrosuna	-10672
▁katılmaya	-10673
OR	-10674
afir	-10675
CACAF	-10676
▁Benj	-10677
▁şehre	-10678
▁Haydar	-10679
▁başlık	-10680
▁Sibirya	-10681
▁çevresindeki	-10682
▁Bed	-10683
▁Köln	-10684
testan	-10685
▁Zafer	-10686
▁işken	-10687
▁Maliye	-10688
▁Marvel	-10689
▁Sonunda	-10690
Hal	-10691
▁mini	-10692
▁Golden	-10693
▁haftalık	-10694
aco	-10695
dad	-10696
biye	-10697
▁Dükü	-10698
▁Veli	-10699
▁Letonya	-10700
▁olabileceğini	-10701
▁Çiz	-10702
▁farkı	-10703
▁siyasal	-10704
IM	-10705
reb	-10706
▁köşe	-10707
▁sürücü	-10708
▁Zam	-10709
▁taşıtlar	-10710
▁Etim	-10711
▁Kurum	-10712
▁anayas	-10713
▁girmiş	-10714
▁torunu	-10715
lanmıştı	-10716
▁Alexand	-10717
▁söylenir	-10718
ısa	-10719
▁Work	-10720
▁depolama	-10721
▁ayrıntılı	-10722
▁kalıntıları	-10723
▁Duy	-10724
▁Pul	-10725
▁bahset	-10726
▁trafik	-10727
▁nihayet	-10728
▁başbakanı	-10729
▁mevkiinde	-10730
▁stratejik	-10731
asus	-10732
▁şiş	-10733
ordon	-10734
▁tüfek	-10735
▁savunu	-10736
▁tedavisi	-10737
▁takımıyla	-10738
ozisyon	-10739
▁Online	-10740
▁içinden	-10741
US	-10742
▁Vis	-10743
earch	-10744
▁verg	-10745
▁yaşta	-10746
▁devletler	-10747
▁savaşları	-10748
enne	-10749
▁Bla	-10750
▁Mihail	-10751
▁Houston	-10752
▁plastik	-10753
▁Kayıt	-10754
▁takma	-10755
▁Müdürü	-10756
▁Yasası	-10757
▁fakült	-10758
▁farklıdır	-10759
▁riba	-10760
▁İklim	-10761
▁Lüksemburg	-10762
via	-10763
enti	-10764
▁masa	-10765
▁slog	-10766
▁hidrojen	-10767
▁Lisesinde	-10768
▁gösterilir	-10769
▁Tiyatroları	-10770
ABD	-10771
▁Tuz	-10772
▁bant	-10773
▁kaya	-10774
▁Hoca	-10775
▁müst	-10776
▁kaybı	-10777
oyd	-10778
izan	-10779
▁Çukur	-10780
▁ray	-10781
eceğine	-10782
▁savaşçı	-10783
▁tarihten	-10784
▁tehlikeli	-10785
▁olabileceği	-10786
▁Sefer	-10787
▁rakib	-10788
▁ameliyat	-10789
▁Yel	-10790
▁Douglas	-10791
▁dergisinde	-10792
pro	-10793
atosu	-10794
lantı	-10795
▁öden	-10796
▁Sezar	-10797
▁Liberal	-10798
▁merkezleri	-10799
▁Sami	-10800
▁öğretmeni	-10801
feld	-10802
vili	-10803
renin	-10804
ıklar	-10805
▁alet	-10806
▁müze	-10807
▁düşer	-10808
▁kapan	-10809
▁Kolordu	-10810
▁Zer	-10811
▁ret	-10812
▁Johann	-10813
▁sef	-10814
▁hist	-10815
▁hayır	-10816
▁mı	-10817
▁Hom	-10818
değer	-10819
▁İvan	-10820
▁Drama	-10821
▁şarkısını	-10822
gs	-10823
▁Vo	-10824
▁Yunus	-10825
▁tutum	-10826
▁haklarını	-10827
stad	-10828
▁Lag	-10829
▁Dance	-10830
▁sahte	-10831
▁taşıma	-10832
▁sürmüştür	-10833
▁kahverengi	-10834
],	-10835
▁sans	-10836
▁topr	-10837
ivayet	-10838
▁çıkması	-10839
▁hükûmetin	-10840
attle	-10841
rî	-10842
▁çevrili	-10843
▁sayısının	-10844
UR	-10845
▁kadem	-10846
▁makine	-10847
▁yeryüz	-10848
▁sözcüğü	-10849
▁karşılaştı	-10850
▁Tu	-10851
ally	-10852
▁Ted	-10853
▁Trakya	-10854
▁yarısı	-10855
▁ordusunu	-10856
▁getirilen	-10857
ozgat	-10858
▁seks	-10859
ebileceği	-10860
▁açıklamada	-10861
▁sisteminde	-10862
▁düzenlediği	-10863
▁teknolojisi	-10864
abey	-10865
tedir	-10866
▁Budap	-10867
▁Squ	-10868
▁Games	-10869
▁intikam	-10870
Con	-10871
▁Reh	-10872
▁vez	-10873
ıyaka	-10874
▁Sher	-10875
▁bacak	-10876
▁geride	-10877
▁Ülkenin	-10878
▁cezalandır	-10879
Jap	-10880
▁millet	-10881
▁Öğretmen	-10882
▁destekledi	-10883
▁saldırıları	-10884
emy	-10885
▁Erol	-10886
▁Hristiy	-10887
▁Evi	-10888
▁kın	-10889
▁Asur	-10890
▁Kamer	-10891
▁İkinc	-10892
▁Heinrich	-10893
▁kaydedilmiştir	-10894
▁Alber	-10895
▁Boğazı	-10896
▁azınlık	-10897
▁yöntemleri	-10898
▁Konfederasyon	-10899
▁Zag	-10900
▁Tang	-10901
alarak	-10902
▁Protestan	-10903
app	-10904
nit	-10905
oter	-10906
▁Gay	-10907
▁Arif	-10908
▁neticesinde	-10909
▁gerekti	-10910
iyop	-10911
▁maçlar	-10912
▁ağırlığı	-10913
üyü	-10914
▁hane	-10915
ebilmek	-10916
asyonları	-10917
▁yeteneği	-10918
▁İstasyonu	-10919
Ah	-10920
NS	-10921
eka	-10922
▁Kâ	-10923
bour	-10924
▁bürokrat	-10925
▁ikincisi	-10926
rett	-10927
rond	-10928
Dünya	-10929
▁Peters	-10930
elenmemiş	-10931
▁sattı	-10932
▁Mardin	-10933
▁Nintendo	-10934
▁Uygulama	-10935
▁numarası	-10936
▁Saman	-10937
sterdam	-10938
▁ihtiyacı	-10939
lyn	-10940
▁VII	-10941
▁düzlem	-10942
▁girişimi	-10943
İtal	-10944
▁Mario	-10945
▁açıklamıştır	-10946
▁Dak	-10947
allas	-10948
▁elen	-10949
▁Girls	-10950
▁donat	-10951
▁drama	-10952
▁Kitapları	-10953
▁bestecileri	-10954
▁desteklemek	-10955
▁gerçekleşir	-10956
▁dâ	-10957
ikol	-10958
▁icat	-10959
▁saptan	-10960
▁toplumun	-10961
▁önemi	-10962
▁meşhur	-10963
avüz	-10964
aziçi	-10965
▁değin	-10966
▁galip	-10967
▁buraya	-10968
▁Senaryo	-10969
▁tasarlanmıştır	-10970
▁Toy	-10971
▁köle	-10972
ekteki	-10973
daha	-10974
light	-10975
▁Babil	-10976
▁kaplı	-10977
▁ülkeyi	-10978
▁etmişti	-10979
▁gelmesi	-10980
▁sponsor	-10981
▁bölümden	-10982
unç	-10983
anum	-10984
▁Tru	-10985
Macar	-10986
▁Thor	-10987
▁Howard	-10988
▁kaleci	-10989
▁öldüğü	-10990
▁CONCACAF	-10991
onia	-10992
leşmesi	-10993
▁eskiden	-10994
▁bombardım	-10995
▁Kil	-10996
▁Mobile	-10997
▁misyon	-10998
▁teorik	-10999
▁Academ	-11000
▁Review	-11001
▁görünen	-11002
anlarında	-11003
▁sekreter	-11004
▁etkisiyle	-11005
▁kullanmaya	-11006
▁negatif	-11007
▁yazında	-11008
diklerini	-11009
oa	-11010
▁sistemler	-11011
▁acil	-11012
▁oynamaya	-11013
▁sayıları	-11014
şar	-11015
▁Moh	-11016
▁Muz	-11017
▁Yedi	-11018
▁mülte	-11019
▁Şanlıur	-11020
▁Hristiyanlık	-11021
dom	-11022
ople	-11023
küdar	-11024
lotte	-11025
▁ilah	-11026
▁peyn	-11027
▁izleyic	-11028
▁görmüştür	-11029
▁insanlara	-11030
▁Orkestrası	-11031
OL	-11032
ario	-11033
▁mag	-11034
isiydi	-11035
▁Dayan	-11036
▁becer	-11037
▁Mısırlı	-11038
▁teklifi	-11039
▁Karşıyaka	-11040
tana	-11041
▁yazıt	-11042
▁otorit	-11043
▁okyanus	-11044
▁hayatının	-11045
▁taç	-11046
ental	-11047
▁Clark	-11048
▁dosya	-11049
▁sermay	-11050
▁Pass	-11051
▁Hazar	-11052
▁Doctor	-11053
▁formül	-11054
▁donanım	-11055
▁kiralık	-11056
▁yararlan	-11057
uta	-11058
espe	-11059
▁Daw	-11060
▁Log	-11061
ılışı	-11062
▁Anıt	-11063
▁birinde	-11064
▁istikrar	-11065
▁Atlas	-11066
▁Publish	-11067
▁tanıtım	-11068
ium	-11069
▁Sz	-11070
▁hekim	-11071
wich	-11072
▁Kun	-11073
eptör	-11074
▁Wol	-11075
▁çalın	-11076
▁Yapılan	-11077
▁etmesini	-11078
▁yazıları	-11079
asp	-11080
▁Jud	-11081
▁Tre	-11082
Arapça	-11083
▁yendi	-11084
▁tecrüb	-11085
▁Malezya	-11086
▁heykeltıraş	-11087
SD	-11088
ault	-11089
▁Nah	-11090
arius	-11091
▁Yozgat	-11092
▁Michigan	-11093
▁enerjisi	-11094
▁annesinin	-11095
urs	-11096
▁Remix	-11097
▁cephe	-11098
last	-11099
▁yoğunlaş	-11100
▁getirdiği	-11101
▁hükûmetinin	-11102
▁bilinmemektedir	-11103
rus	-11104
▁Emmy	-11105
▁gruptan	-11106
▁Benjamin	-11107
▁Yayınevi	-11108
▁Niz	-11109
madır	-11110
▁serv	-11111
▁Mirası	-11112
▁aktivit	-11113
▁ebeveyn	-11114
▁verilerine	-11115
At	-11116
aron	-11117
maraş	-11118
▁Milletvekili	-11119
eds	-11120
otos	-11121
ampir	-11122
▁Bros	-11123
▁Uşak	-11124
▁kanı	-11125
▁organı	-11126
▁bileşik	-11127
▁Milletvekilliği	-11128
alis	-11129
işsel	-11130
aalanı	-11131
▁kalıntılar	-11132
▁u	-11133
uba	-11134
şir	-11135
▁şeyin	-11136
▁Fabrik	-11137
▁kapsar	-11138
▁İlçesi	-11139
▁buradan	-11140
▁Profesör	-11141
ña	-11142
etta	-11143
▁Reb	-11144
▁Jason	-11145
▁Salonu	-11146
▁töreni	-11147
▁oksijen	-11148
▁başarıyla	-11149
▁eng	-11150
▁yarattı	-11151
sian	-11152
▁Katar	-11153
diy	-11154
iva	-11155
nel	-11156
▁Battle	-11157
▁siyasetçidir	-11158
gaz	-11159
ustin	-11160
utsch	-11161
▁İşletme	-11162
skaya	-11163
ouse	-11164
▁Lav	-11165
▁Palm	-11166
▁öldürür	-11167
dört	-11168
▁Jenn	-11169
▁Mada	-11170
▁Trav	-11171
enberg	-11172
▁Bilimsel	-11173
gart	-11174
yosu	-11175
▁Zür	-11176
▁piskopos	-11177
EP	-11178
ilk	-11179
▁oradan	-11180
▁propaganda	-11181
▁Mür	-11182
▁Run	-11183
▁Frances	-11184
oba	-11185
tih	-11186
esaj	-11187
▁iline	-11188
abat	-11189
▁Tos	-11190
▁sos	-11191
aktif	-11192
ustik	-11193
▁Gior	-11194
▁Arena	-11195
▁görmüş	-11196
▁yetmez	-11197
▁olurken	-11198
ilia	-11199
▁Basın	-11200
▁bilgisay	-11201
▁kaynaklarda	-11202
▁düzenlenmiştir	-11203
▁pist	-11204
▁olgun	-11205
▁Çorum	-11206
▁kuvveti	-11207
▁getirmek	-11208
ürn	-11209
Yeni	-11210
önes	-11211
▁Müş	-11212
▁veda	-11213
▁çalışmak	-11214
▁Mix	-11215
▁tün	-11216
opotam	-11217
▁üyesiydi	-11218
▁konularda	-11219
edan	-11220
odin	-11221
▁Rel	-11222
▁Book	-11223
▁adları	-11224
▁rekoru	-11225
▁gitarist	-11226
ique	-11227
▁Akın	-11228
▁etmesine	-11229
▁İlişkiler	-11230
eşte	-11231
▁Das	-11232
lemiş	-11233
▁Krist	-11234
asyonal	-11235
▁Encyclop	-11236
▁yarışmada	-11237
▁sağlamaktadır	-11238
San	-11239
▁Ale	-11240
▁Cab	-11241
▁Hes	-11242
▁sürük	-11243
▁açtığı	-11244
▁bağlandı	-11245
▁olmaları	-11246
▁felsefesi	-11247
▁verilmektedir	-11248
edo	-11249
acın	-11250
uter	-11251
▁Ulaş	-11252
▁pencer	-11253
▁oyuncunun	-11254
▁McG	-11255
▁Flam	-11256
linois	-11257
▁sanal	-11258
▁İsmet	-11259
hag	-11260
▁Stu	-11261
terek	-11262
▁havz	-11263
demokrat	-11264
▁Sekreter	-11265
▁onlar	-11266
▁Oyunun	-11267
▁kitabın	-11268
▁sürecinde	-11269
gele	-11270
illo	-11271
▁Nef	-11272
▁Rac	-11273
▁Grek	-11274
▁evde	-11275
▁Meryem	-11276
▁Genelkurmay	-11277
▁Pu	-11278
▁Önce	-11279
▁deyiş	-11280
lubiyet	-11281
ografya	-11282
▁yıldızı	-11283
ilmesinden	-11284
AN	-11285
espeare	-11286
▁Penn	-11287
▁emri	-11288
▁kaçtı	-11289
▁konak	-11290
▁memnun	-11291
▁Giovanni	-11292
▁tamamlamıştır	-11293
▁Oyn	-11294
▁Yum	-11295
▁Bruce	-11296
ağındaki	-11297
▁benzeyen	-11298
▁Kale	-11299
▁aralı	-11300
▁sarmal	-11301
▁Edebiyatı	-11302
▁modelleri	-11303
▁konusundaki	-11304
mec	-11305
phy	-11306
▁Tir	-11307
▁kör	-11308
▁izledi	-11309
▁yazmaya	-11310
nar	-11311
▁Dokuz	-11312
▁haric	-11313
▁çarpış	-11314
▁Lawrence	-11315
▁verdiler	-11316
▁kurmuştur	-11317
▁RP	-11318
▁ödem	-11319
▁kılıç	-11320
▁büyüklük	-11321
ines	-11322
▁Jar	-11323
▁özet	-11324
▁Theod	-11325
▁Benzer	-11326
▁açmıştır	-11327
ümlü	-11328
siniz	-11329
under	-11330
▁Efsan	-11331
▁aşkın	-11332
▁taşıy	-11333
▁yapması	-11334
▁periy	-11335
▁mahkeme	-11336
▁prodüktör	-11337
▁verilmesi	-11338
▁listelerinde	-11339
ias	-11340
▁ikl	-11341
▁Buck	-11342
üsünün	-11343
▁Çiçek	-11344
▁mühendisi	-11345
Th	-11346
raw	-11347
▁pres	-11348
ılmasının	-11349
▁Kulüpler	-11350
▁oranında	-11351
▁Kahramanmaraş	-11352
▁iniş	-11353
▁Kurucu	-11354
▁Siyaset	-11355
▁çöl	-11356
▁topu	-11357
▁Brook	-11358
▁sunucusu	-11359
Ab	-11360
▁po	-11361
▁Vat	-11362
anıyor	-11363
▁sentez	-11364
▁grubuna	-11365
▁oğludur	-11366
▁parçalan	-11367
▁planlanan	-11368
▁kendisinden	-11369
▁eve	-11370
▁Aksu	-11371
▁Abdul	-11372
▁Kuruluş	-11373
▁yerleşik	-11374
ağaç	-11375
▁siv	-11376
▁Balkanlar	-11377
▁kariyerinde	-11378
ror	-11379
lock	-11380
wart	-11381
▁Diş	-11382
▁duruş	-11383
▁kaptan	-11384
▁oyunda	-11385
▁GB	-11386
sızlık	-11387
▁yapının	-11388
▁tamamlan	-11389
▁ödülleri	-11390
weet	-11391
▁com	-11392
▁Kelly	-11393
▁Standart	-11394
▁Tex	-11395
▁This	-11396
▁Odası	-11397
▁kurmuş	-11398
▁birliklerinin	-11399
âs	-11400
artesi	-11401
▁Liber	-11402
▁seçti	-11403
▁müzisyenleri	-11404
▁Aut	-11405
▁fonksiyonu	-11406
▁endüstriyel	-11407
▁şampiyonluğunu	-11408
New	-11409
▁Antakya	-11410
▁Kontrol	-11411
▁sayısını	-11412
▁İncelenmemiş	-11413
unes	-11414
urch	-11415
▁Him	-11416
▁Sık	-11417
▁Tet	-11418
▁Filmi	-11419
▁topçu	-11420
▁görünüş	-11421
▁Margaret	-11422
▁Slovakya	-11423
anıp	-11424
▁Mekt	-11425
▁dernek	-11426
▁Boğaziçi	-11427
▁Listeler	-11428
▁Filipinler	-11429
▁gazetesinde	-11430
▁dönemlerinde	-11431
▁Inf	-11432
▁Luci	-11433
▁hücum	-11434
▁scope	-11435
▁etkinliği	-11436
idel	-11437
▁işbir	-11438
▁Üsküdar	-11439
▁dikkatini	-11440
şan	-11441
▁TÜ	-11442
organ	-11443
▁kontr	-11444
▁oluşturuldu	-11445
▁Arg	-11446
ipleri	-11447
▁golle	-11448
▁Donald	-11449
▁bildirildi	-11450
▁istasyonları	-11451
EK	-11452
alım	-11453
▁Test	-11454
▁yoksa	-11455
▁müsabakaları	-11456
▁çiç	-11457
▁Glen	-11458
▁hapishan	-11459
▁soyundan	-11460
▁saldırgan	-11461
izin	-11462
stil	-11463
▁hata	-11464
▁çoklu	-11465
▁Felsefe	-11466
▁tac	-11467
▁hekt	-11468
▁yazma	-11469
▁Amsterdam	-11470
▁istediğini	-11471
▁seçimlerde	-11472
dara	-11473
▁hasıl	-11474
▁görevde	-11475
▁kazanır	-11476
▁katlı	-11477
▁hisset	-11478
▁başlığı	-11479
▁İoann	-11480
▁Legend	-11481
▁salonu	-11482
▁anısına	-11483
▁coğrafya	-11484
LC	-11485
Sc	-11486
▁Arşiv	-11487
▁Chelsea	-11488
▁partisi	-11489
karahisar	-11490
▁popülasyon	-11491
▁Dolayısıyla	-11492
▁Konservatuvarı	-11493
epe	-11494
▁volkan	-11495
▁vermesi	-11496
▁aldıktan	-11497
egen	-11498
▁gelip	-11499
▁başvuru	-11500
inen	-11501
▁Suç	-11502
archive	-11503
▁olmasa	-11504
▁yaşına	-11505
orp	-11506
yurt	-11507
▁Plak	-11508
ffffff	-11509
osunun	-11510
▁tutan	-11511
▁Amasya	-11512
▁Samsunspor	-11513
▁hastalıkları	-11514
▁sürdürmektedir	-11515
ramv	-11516
▁ekr	-11517
▁böcek	-11518
▁sıralan	-11519
▁topraklarında	-11520
roit	-11521
▁dinî	-11522
▁iktis	-11523
itasyon	-11524
▁kritik	-11525
▁Pre	-11526
▁Over	-11527
▁Women	-11528
▁uzaklaş	-11529
▁üreticisi	-11530
▁öğrenimini	-11531
name	-11532
▁Sarah	-11533
▁Techn	-11534
▁Ludwig	-11535
▁oynamış	-11536
teg	-11537
▁İpek	-11538
amadığı	-11539
▁Aslında	-11540
▁ilçenin	-11541
▁üretildi	-11542
▁İsrailli	-11543
▁Wi	-11544
atre	-11545
▁kampany	-11546
apt	-11547
ingrad	-11548
▁bugüne	-11549
lâm	-11550
ğunun	-11551
▁Step	-11552
▁Tibet	-11553
mediğini	-11554
▁içeriği	-11555
▁sıkıştır	-11556
▁göçmenler	-11557
eo	-11558
lular	-11559
▁Ohio	-11560
▁Ardahan	-11561
▁Arsenal	-11562
▁Get	-11563
ogram	-11564
▁Renk	-11565
leşmiş	-11566
notlar	-11567
▁ordunun	-11568
▁etkisini	-11569
▁Elektronik	-11570
onim	-11571
risi	-11572
▁Lab	-11573
▁hid	-11574
▁bulaş	-11575
▁müzaker	-11576
▁gözük	-11577
▁Tayvan	-11578
▁Indiana	-11579
▁akciğer	-11580
▁Havacılık	-11581
inae	-11582
opol	-11583
santr	-11584
▁Geri	-11585
▁Böyle	-11586
▁keman	-11587
▁Özgün	-11588
▁hentbol	-11589
▁Shakespeare	-11590
agen	-11591
abeyi	-11592
▁Öykü	-11593
▁Morris	-11594
▁köyünün	-11595
▁ilçesinin	-11596
vers	-11597
▁Pac	-11598
iliğe	-11599
▁damar	-11600
▁denen	-11601
▁florası	-11602
Az	-11603
odik	-11604
▁Sit	-11605
▁Luis	-11606
▁adındaki	-11607
▁tanımladı	-11608
▁eyaletinin	-11609
▁bulunabilir	-11610
anti	-11611
illy	-11612
issa	-11613
▁tık	-11614
▁diller	-11615
▁sürülen	-11616
▁yapımında	-11617
İl	-11618
CDD	-11619
▁Çar	-11620
▁Noel	-11621
▁Ross	-11622
▁Hitit	-11623
▁Parça	-11624
▁Sivil	-11625
▁kesint	-11626
▁hakkını	-11627
▁düşünülen	-11628
▁Şehirdeki	-11629
evre	-11630
▁Sayı	-11631
ecekti	-11632
herine	-11633
▁Çeyrek	-11634
otel	-11635
▁(?-	-11636
iyesi	-11637
▁Bren	-11638
▁Kalp	-11639
▁akın	-11640
▁boya	-11641
▁verit	-11642
▁yatak	-11643
▁yayıncı	-11644
▁bulunuyor	-11645
▁kurumları	-11646
▁Teh	-11647
▁tatil	-11648
▁Göç	-11649
▁log	-11650
▁konuşulan	-11651
▁nör	-11652
▁Hugh	-11653
▁taleb	-11654
▁Nitekim	-11655
▁koalisyon	-11656
baz	-11657
▁Vali	-11658
▁Pınar	-11659
▁kocası	-11660
▁monarş	-11661
manyetik	-11662
▁geçmişi	-11663
ages	-11664
▁Ton	-11665
▁grupta	-11666
▁Özdemir	-11667
▁Bekir	-11668
▁tohum	-11669
▁denize	-11670
▁güneyde	-11671
yaz	-11672
ayev	-11673
▁bede	-11674
▁dönüm	-11675
▁Illinois	-11676
▁demektir	-11677
▁öf	-11678
▁TCDD	-11679
ilirken	-11680
▁finansal	-11681
▁adlandırıldı	-11682
▁Reş	-11683
▁Ertuğ	-11684
▁civar	-11685
▁Family	-11686
madığını	-11687
▁Floransa	-11688
▁güzellik	-11689
lastı	-11690
▁çaplı	-11691
üzik	-11692
▁Bush	-11693
eğinin	-11694
▁sağlığı	-11695
▁saldırdı	-11696
unc	-11697
ğday	-11698
▁yal	-11699
▁direkt	-11700
▁bağlayan	-11701
▁yapıları	-11702
anz	-11703
▁yaygındır	-11704
▁Yahudileri	-11705
▁--	-11706
▁him	-11707
▁Lake	-11708
▁Rain	-11709
▁hali	-11710
▁Bryan	-11711
▁Gitar	-11712
▁Magaz	-11713
▁üçünc	-11714
▁Ajansı	-11715
▁bölümünün	-11716
▁oluşmuştur	-11717
Pro	-11718
sten	-11719
▁Olu	-11720
▁çel	-11721
▁Adan	-11722
▁bakır	-11723
▁İskan	-11724
▁kayıtları	-11725
▁milyondan	-11726
▁tanıtıldı	-11727
kesi	-11728
▁aşir	-11729
▁Adams	-11730
▁Ansiklop	-11731
igi	-11732
usuz	-11733
▁hik	-11734
▁Alayı	-11735
liğiyle	-11736
▁Zeynep	-11737
▁atıldı	-11738
▁Mücadele	-11739
head	-11740
▁Lind	-11741
▁boru	-11742
▁kare	-11743
▁Gordon	-11744
</	-11745
De	-11746
fri	-11747
▁Wy	-11748
aton	-11749
▁kırık	-11750
▁duygusal	-11751
▁kompleks	-11752
▁verilmiş	-11753
Har	-11754
▁Şi	-11755
▁otuz	-11756
emeyen	-11757
▁Hazır	-11758
▁takib	-11759
▁tarafı	-11760
▁kullanı	-11761
▁vatandaşı	-11762
▁dergisinin	-11763
▁geliştirmek	-11764
▁kaza	-11765
▁Stefan	-11766
▁döndür	-11767
▁tecavüz	-11768
▁yeterince	-11769
▁edilmesini	-11770
▁Sosyaldemokrat	-11771
FTA	-11772
▁Mig	-11773
▁Vatan	-11774
▁dinamik	-11775
▁radikal	-11776
▁karşılığı	-11777
aketi	-11778
▁Carex	-11779
▁Cross	-11780
))	-11781
▁klor	-11782
▁Benim	-11783
▁içecek	-11784
▁Hatta	-11785
▁modül	-11786
▁Master	-11787
▁Series	-11788
▁alanının	-11789
▁değişikliği	-11790
lediler	-11791
▁Gog	-11792
▁sik	-11793
▁dağı	-11794
▁Akademik	-11795
▁oyunudur	-11796
▁oğulları	-11797
uro	-11798
▁Trip	-11799
▁dişi	-11800
▁değerleri	-11801
bes	-11802
kâr	-11803
edim	-11804
affer	-11805
▁ufak	-11806
▁yalan	-11807
▁entegre	-11808
ев	-11809
viv	-11810
isin	-11811
▁Doğa	-11812
▁çalgı	-11813
▁etkiley	-11814
▁veriler	-11815
▁döneminden	-11816
▁kontrolünü	-11817
▁belki	-11818
▁Matthew	-11819
▁Russell	-11820
▁lam	-11821
azesi	-11822
▁menz	-11823
▁Pekin	-11824
▁Filmde	-11825
▁Newton	-11826
▁güvenliği	-11827
ril	-11828
esih	-11829
▁yuv	-11830
▁sözcüğ	-11831
▁Prenses	-11832
▁alışveriş	-11833
ий	-11834
▁Wild	-11835
▁Konuş	-11836
▁Moore	-11837
ağından	-11838
▁Rumeli	-11839
▁aşı	-11840
▁est	-11841
haf	-11842
bell	-11843
oven	-11844
▁baba	-11845
▁idaresi	-11846
RS	-11847
▁Bazen	-11848
▁Vincent	-11849
▁Venezuela	-11850
ng	-11851
▁Yu	-11852
▁Dek	-11853
▁gayet	-11854
▁radyasyon	-11855
▁†	-11856
Hay	-11857
agon	-11858
▁Cli	-11859
▁Bomb	-11860
▁Primera	-11861
islav	-11862
▁etap	-11863
▁Georg	-11864
▁tetik	-11865
▁Dizinin	-11866
▁doğrulan	-11867
▁Kolej	-11868
▁Georgia	-11869
▁Hastalık	-11870
▁Prem	-11871
▁ihr	-11872
▁testi	-11873
▁uyarınca	-11874
▁Kıy	-11875
▁semptom	-11876
▁Bağımsızlık	-11877
▁kullanılmış	-11878
cess	-11879
▁İli	-11880
▁Farklı	-11881
▁Harekâtı	-11882
▁katılmak	-11883
▁Sac	-11884
▁rit	-11885
house	-11886
▁Gine	-11887
▁Color	-11888
▁Institute	-11889
▁denizaltı	-11890
ин	-11891
▁Engin	-11892
▁Valisi	-11893
▁kombin	-11894
▁Platform	-11895
ehan	-11896
▁çif	-11897
▁Serg	-11898
ów	-11899
▁Chan	-11900
▁Universal	-11901
▁bulunmamaktadır	-11902
▁Sep	-11903
▁UCI	-11904
▁Albümü	-11905
▁yöneten	-11906
andarma	-11907
▁doğuda	-11908
▁etmişlerdir	-11909
tz	-11910
ots	-11911
▁ömr	-11912
▁Tank	-11913
ğundan	-11914
▁mağlubiyet	-11915
▁М	-11916
liyor	-11917
▁Tenn	-11918
▁Diego	-11919
▁sunul	-11920
▁Budapeşte	-11921
CC	-11922
agi	-11923
enix	-11924
▁Kül	-11925
uspor	-11926
▁kuzeyde	-11927
▁yarışmaya	-11928
atörler	-11929
kz	-11930
ıh	-11931
▁Kok	-11932
▁Madde	-11933
▁Bibliy	-11934
▁hukuku	-11935
opotamya	-11936
▁araçlar	-11937
▁Türkleri	-11938
▁halklardan	-11939
Re	-11940
▁miz	-11941
▁From	-11942
▁Kadir	-11943
▁iPhone	-11944
▁şeyler	-11945
▁Charlotte	-11946
▁sürer	-11947
▁Güncel	-11948
▁Person	-11949
▁Senato	-11950
▁Arkadaş	-11951
▁merkezidir	-11952
üksel	-11953
memesi	-11954
▁rüzgâr	-11955
▁yumurta	-11956
eron	-11957
▁iOS	-11958
▁Mini	-11959
▁Çarş	-11960
▁sunar	-11961
▁kuyruk	-11962
▁eyaleti	-11963
▁zamanın	-11964
▁keşfedildi	-11965
pop	-11966
matik	-11967
amamış	-11968
▁anket	-11969
▁Collec	-11970
▁Jordan	-11971
▁yasama	-11972
▁Simpson	-11973
▁korunması	-11974
▁üniversiteler	-11975
Baş	-11976
▁yazısı	-11977
▁Nijerya	-11978
▁ortamda	-11979
▁ayakta	-11980
▁rivayet	-11981
▁Call	-11982
▁halif	-11983
▁aydınlat	-11984
▁DS	-11985
▁MK	-11986
▁Uzak	-11987
▁Görsel	-11988
▁deneme	-11989
▁yaratıcı	-11990
▁duyuruldu	-11991
ones	-11992
▁Kang	-11993
sey	-11994
tol	-11995
▁Kuz	-11996
▁oynay	-11997
▁Johnny	-11998
▁nefret	-11999
▁anlamlara	-12000
çay	-12001
▁AG	-12002
▁ilki	-12003
▁nezdinde	-12004
adıklarını	-12005
feri	-12006
tına	-12007
▁Polat	-12008
▁öncelik	-12009
▁kamuoyun	-12010
är	-12011
ops	-12012
acan	-12013
▁muc	-12014
▁Bitlis	-12015
▁tanımı	-12016
▁kullanmaktadır	-12017
▁Vek	-12018
▁vas	-12019
▁tavsiye	-12020
▁bağlanmıştır	-12021
DS	-12022
▁çor	-12023
▁Lost	-12024
▁yüzü	-12025
▁atılan	-12026
▁Müzikal	-12027
▁sekizinci	-12028
▁şeklindeki	-12029
▁seslendirdi	-12030
evk	-12031
▁tüp	-12032
▁Şem	-12033
delen	-12034
▁Fis	-12035
▁Books	-12036
▁Küresel	-12037
▁sembolü	-12038
▁araştırmaları	-12039
ansal	-12040
▁Fire	-12041
▁turnuva	-12042
▁Bursaspor	-12043
▁ressamları	-12044
▁Gazete	-12045
▁savunan	-12046
▁Seçimleri	-12047
▁São	-12048
▁tuş	-12049
▁yor	-12050
oçent	-12051
▁edebi	-12052
▁çekimi	-12053
▁çıkışı	-12054
▁Oblastı	-12055
▁keşfedilen	-12056
▁Á	-12057
ahit	-12058
▁BBP	-12059
▁Gib	-12060
▁üçlü	-12061
▁kapak	-12062
▁patlam	-12063
landıktan	-12064
▁Asp	-12065
▁lok	-12066
▁zaf	-12067
egori	-12068
▁Lyon	-12069
▁sergi	-12070
▁destekler	-12071
▁Hud	-12072
▁Billy	-12073
▁kaçak	-12074
melerin	-12075
▁Aleksandr	-12076
▁Sabah	-12077
▁Komedi	-12078
▁yenilgiye	-12079
Kan	-12080
tra	-12081
▁tahliye	-12082
▁Yerleşim	-12083
▁helikopter	-12084
▁doz	-12085
▁Reis	-12086
▁Tart	-12087
▁teori	-12088
▁çıkıp	-12089
▁Konsey	-12090
▁alırken	-12091
▁filmlerinde	-12092
▁yükselmiştir	-12093
çık	-12094
▁Miami	-12095
▁bağım	-12096
▁şaşır	-12097
▁rezerv	-12098
▁yapısal	-12099
▁sonuçlanan	-12100
ON	-12101
çeği	-12102
oksit	-12103
▁simet	-12104
▁temalı	-12105
▁şehirleri	-12106
▁başarıları	-12107
▁Ja	-12108
▁dâhil	-12109
▁sadık	-12110
stra	-12111
▁Bulut	-12112
▁Etkin	-12113
iteratür	-12114
▁Moldova	-12115
▁devrimci	-12116
▁gerektirir	-12117
izme	-12118
▁Jerry	-12119
▁ithal	-12120
▁isimlendir	-12121
▁uyarlaması	-12122
▁familyasından	-12123
▁tok	-12124
▁gökada	-12125
▁Gençlerbirliği	-12126
koş	-12127
▁Fut	-12128
▁Solo	-12129
▁inanc	-12130
▁Seattle	-12131
▁Selahattin	-12132
▁merkezinin	-12133
▁mode	-12134
▁girişi	-12135
▁tahrip	-12136
ress	-12137
▁alçak	-12138
▁ettikten	-12139
▁söyleyen	-12140
▁Mezopotamya	-12141
IP	-12142
mid	-12143
▁se	-12144
izma	-12145
tics	-12146
▁Nep	-12147
▁gev	-12148
▁yerden	-12149
bür	-12150
chy	-12151
▁FM	-12152
html	-12153
▁belirtilen	-12154
iski	-12155
▁Dat	-12156
ative	-12157
▁Said	-12158
▁kulak	-12159
▁marka	-12160
▁oynandı	-12161
odu	-12162
şim	-12163
malarının	-12164
▁evrensel	-12165
▁sonucuna	-12166
▁ülkedeki	-12167
▁hazırladı	-12168
Su	-12169
çıl	-12170
idip	-12171
▁Fak	-12172
▁Lip	-12173
ümcek	-12174
▁çeşidi	-12175
▁kitapta	-12176
tası	-12177
▁Çor	-12178
▁Ayşe	-12179
▁Ders	-12180
▁talim	-12181
▁dilbilim	-12182
▁olayların	-12183
dil	-12184
▁UK	-12185
okim	-12186
▁Wars	-12187
▁gram	-12188
▁Artık	-12189
▁Ramaz	-12190
▁Yazılım	-12191
▁imzalan	-12192
kırı	-12193
uvaz	-12194
▁Bog	-12195
▁gri	-12196
▁Şar	-12197
eğmen	-12198
ettepe	-12199
▁etken	-12200
▁Heykel	-12201
▁diyerek	-12202
▁öğrendi	-12203
malara	-12204
▁tüccar	-12205
▁Öztürk	-12206
▁Digital	-12207
▁etmekte	-12208
▁kısmının	-12209
▁rütbesine	-12210
▁imparatoru	-12211
▁hukukçu	-12212
▁yenildi	-12213
▁İoannis	-12214
agog	-12215
▁IMD	-12216
▁Like	-12217
▁sütun	-12218
▁Ök	-12219
▁soyadı	-12220
▁fantastik	-12221
▁giymiştir	-12222
▁Hiç	-12223
▁Çayı	-12224
▁şerit	-12225
Tur	-12226
▁Ti	-12227
▁Aur	-12228
▁Queen	-12229
▁alıcı	-12230
▁tahmini	-12231
▁Ertuğrul	-12232
▁birimler	-12233
▁koşulları	-12234
▁coğrafyası	-12235
▁Blan	-12236
▁futbolu	-12237
▁başından	-12238
▁komedyen	-12239
alarındaki	-12240
▁tasarlanan	-12241
▁Miz	-12242
irlik	-12243
▁Marcus	-12244
▁süvari	-12245
▁Japonca	-12246
▁aldığını	-12247
▁mimarisi	-12248
ès	-12249
▁portr	-12250
▁tanımlanmıştır	-12251
ahh	-12252
eke	-12253
▁Nac	-12254
▁köp	-12255
▁Bors	-12256
▁Magn	-12257
▁kodu	-12258
▁başlı	-12259
▁sorgul	-12260
▁Project	-12261
▁Division	-12262
▁sadrazam	-12263
▁seviyesi	-12264
asy	-12265
rir	-12266
▁Taraf	-12267
▁posta	-12268
▁Barbara	-12269
▁çocuğun	-12270
▁eğitimine	-12271
▁göstermek	-12272
mb	-12273
irk	-12274
osit	-12275
▁Fan	-12276
▁dan	-12277
▁Dre	-12278
▁Hic	-12279
▁felsefi	-12280
▁kanseri	-12281
▁inceleme	-12282
▁takımdan	-12283
▁oyuncudur	-12284
▁Cle	-12285
▁Dum	-12286
▁Nem	-12287
▁Cent	-12288
▁UN	-12289
▁Kaş	-12290
ipler	-12291
▁Earth	-12292
▁tekniği	-12293
▁konuları	-12294
nd	-12295
ıd	-12296
kit	-12297
tebi	-12298
▁kılı	-12299
▁hâkim	-12300
▁düzeni	-12301
▁bırakarak	-12302
▁Gaga	-12303
▁Main	-12304
▁Soul	-12305
▁hadis	-12306
▁devred	-12307
▁sürülmüştür	-12308
ıldıktan	-12309
▁Edition	-12310
▁olurlar	-12311
▁geçirildi	-12312
▁ft	-12313
▁Pist	-12314
roskop	-12315
önesans	-12316
▁edebil	-12317
▁yüzlerce	-12318
▁alanındaki	-12319
▁atanmıştır	-12320
▁hazırladığı	-12321
▁yarışmasında	-12322
▁çalışmalarının	-12323
.-	-12324
Fran	-12325
cüsü	-12326
ophy	-12327
İspan	-12328
▁şairleri	-12329
ımın	-12330
▁Pok	-12331
▁Eyüp	-12332
▁Karag	-12333
▁arttı	-12334
▁kuran	-12335
▁yönlü	-12336
rondiss	-12337
▁seçkin	-12338
▁Mahk	-12339
▁dükk	-12340
▁hedefi	-12341
▁hâline	-12342
▁yapmayı	-12343
▁şairler	-12344
leyebilir	-12345
▁Row	-12346
▁Two	-12347
dinav	-12348
▁Bolu	-12349
Fransa	-12350
▁Secret	-12351
▁çektiği	-12352
▁Araştırmaları	-12353
▁belirtilmiştir	-12354
api	-12355
reddin	-12356
▁Coğraf	-12357
▁Etiyop	-12358
▁meclisi	-12359
▁geçirmek	-12360
▁başlangıcı	-12361
iliyor	-12362
▁vuruş	-12363
▁firması	-12364
▁ölçekli	-12365
▁dünyasında	-12366
bağ	-12367
eşal	-12368
wick	-12369
▁laz	-12370
▁Baby	-12371
ikayet	-12372
▁alanın	-12373
▁sanatçının	-12374
▁Şampiyonluk	-12375
tica	-12376
▁Marx	-12377
▁Prime	-12378
▁Petrol	-12379
▁gözden	-12380
▁gömüldü	-12381
▁yazılımı	-12382
▁eksikliği	-12383
▁havacılık	-12384
Bar	-12385
onc	-12386
▁Sv	-12387
▁zarf	-12388
▁polisiye	-12389
▁Hacettepe	-12390
▁с	-12391
▁Java	-12392
▁ihan	-12393
▁şarj	-12394
▁Ferdin	-12395
▁Anayasası	-12396
▁ilgilidir	-12397
▁К	-12398
mağı	-12399
▁Alek	-12400
▁ağrı	-12401
▁türb	-12402
▁Mekke	-12403
▁paramet	-12404
▁Lah	-12405
ebilmesi	-12406
ildikten	-12407
▁çevresel	-12408
kt	-12409
burn	-12410
▁Cep	-12411
eksüel	-12412
▁Abdur	-12413
▁Boliv	-12414
▁kayde	-12415
▁gerçekleşmiştir	-12416
▁şap	-12417
▁Avcı	-12418
▁Orada	-12419
▁çevrel	-12420
▁reseptör	-12421
▁Sonrasında	-12422
▁kararlaştır	-12423
dle	-12424
▁çet	-12425
ötesi	-12426
▁Edin	-12427
▁folk	-12428
▁kont	-12429
▁Serdar	-12430
▁ailesine	-12431
▁görüşmeler	-12432
jet	-12433
▁Cho	-12434
▁şeklindedir	-12435
▁ış	-12436
insk	-12437
elson	-12438
▁Karol	-12439
▁Tahran	-12440
▁Valent	-12441
▁ortağı	-12442
▁desteğini	-12443
Br	-12444
TT	-12445
dış	-12446
nesota	-12447
▁üyeler	-12448
▁Çekoslovakya	-12449
ıva	-12450
▁Nu	-12451
▁Pad	-12452
▁Rang	-12453
▁iade	-12454
▁adres	-12455
▁Hürriyet	-12456
érie	-12457
▁Alanı	-12458
ışıklık	-12459
▁Olaylar	-12460
alo	-12461
ione	-12462
▁KK	-12463
▁Oda	-12464
▁Tit	-12465
iness	-12466
▁ikiz	-12467
▁varsa	-12468
▁herpet	-12469
▁verici	-12470
▁ifadesi	-12471
▁yaşamak	-12472
▁dolarlık	-12473
graf	-12474
ichi	-12475
▁Kural	-12476
▁düğüm	-12477
||||||||	-12478
▁açıklar	-12479
▁etkinlikleri	-12480
▁geliştirilmesi	-12481
rary	-12482
▁Mant	-12483
▁kullanma	-12484
▁silahlar	-12485
▁kapasitesi	-12486
▁İYİ	-12487
▁FIBA	-12488
▁Salon	-12489
▁Church	-12490
▁yazılar	-12491
▁Yüksekokulu	-12492
ılın	-12493
▁Aer	-12494
▁Pon	-12495
▁pik	-12496
▁Abhaz	-12497
▁oluşumu	-12498
▁turunda	-12499
▁sayımında	-12500
▁görevlerinde	-12501
▁Telev	-12502
▁isyancı	-12503
▁katılma	-12504
▁taraftan	-12505
▁öğrencileri	-12506
eing	-12507
▁anak	-12508
▁Albümde	-12509
▁Century	-12510
▁dokuzuncu	-12511
▁günümüzdeki	-12512
▁Pit	-12513
▁muharebe	-12514
Macaristan	-12515
dum	-12516
atra	-12517
kapı	-12518
▁Are	-12519
esince	-12520
▁BAFTA	-12521
▁Şerif	-12522
▁yaşamaya	-12523
▁Wikipedia	-12524
▁sezonları	-12525
tatör	-12526
elenmiş	-12527
▁Claudi	-12528
▁Comics	-12529
▁gözalt	-12530
▁Yarışma	-12531
▁etkileyen	-12532
▁ec	-12533
▁Gul	-12534
▁hâlen	-12535
▁Yalçın	-12536
▁Atlanta	-12537
▁belirlenir	-12538
▁mürettebat	-12539
▁yayınladığı	-12540
afak	-12541
lake	-12542
▁Para	-12543
▁korudu	-12544
▁memleket	-12545
▁güneydoğusunda	-12546
▁Won	-12547
▁Kırık	-12548
▁soyad	-12549
▁direnç	-12550
▁yazıldı	-12551
▁askerlik	-12552
▁Turnuvası	-12553
',	-12554
EB	-12555
ль	-12556
ğımız	-12557
▁Magic	-12558
▁olmaz	-12559
▁anayasa	-12560
▁Portakal	-12561
▁bölgesinden	-12562
leksi	-12563
▁kayda	-12564
▁Dağlık	-12565
▁bölgeden	-12566
▁koruyucu	-12567
irit	-12568
muştu	-12569
ürler	-12570
▁Kongo	-12571
▁Silen	-12572
▁Müziği	-12573
▁batıda	-12574
▁gitmek	-12575
▁liderlik	-12576
▁İstasyon	-12577
ebileceğini	-12578
▁direktörlük	-12579
ühr	-12580
▁MA	-12581
brek	-12582
▁Rag	-12583
▁off	-12584
▁yüklü	-12585
▁Cannes	-12586
▁Kurguda	-12587
▁düşündü	-12588
▁krallık	-12589
▁markası	-12590
▁sk	-12591
▁Rüz	-12592
▁Born	-12593
▁Jimmy	-12594
▁elendi	-12595
▁bulmuştur	-12596
▁yarattığı	-12597
göl	-12598
▁Ümit	-12599
▁cesaret	-12600
▁kulübün	-12601
▁moleküler	-12602
▁akademisyenler	-12603
çam	-12604
▁Va	-12605
özellikle	-12606
▁muhtemel	-12607
▁elektrikli	-12608
▁Nav	-12609
▁örg	-12610
▁Boris	-12611
malarda	-12612
▁dağlık	-12613
▁yapıya	-12614
▁Savaşın	-12615
▁topraklarını	-12616
Top	-12617
ady	-12618
nett	-12619
▁Zim	-12620
▁Kulesi	-12621
▁bölümün	-12622
▁Internet	-12623
▁Jonathan	-12624
medik	-12625
lilerin	-12626
▁ölümcül	-12627
▁düzensiz	-12628
▁ordusuna	-12629
anne	-12630
iten	-12631
▁nin	-12632
▁Adven	-12633
▁İdare	-12634
Almanca	-12635
▁Antark	-12636
▁döneme	-12637
▁klinik	-12638
▁Minnesota	-12639
▁Mahallenin	-12640
Gür	-12641
▁Frederick	-12642
ll	-12643
gain	-12644
ilaf	-12645
imum	-12646
▁Gray	-12647
lamayı	-12648
▁Sümer	-12649
▁Summer	-12650
▁ekledi	-12651
▁Sebasti	-12652
▁tedarik	-12653
▁örnekler	-12654
▁Stockholm	-12655
▁Isa	-12656
diven	-12657
▁Bayb	-12658
▁More	-12659
▁Zong	-12660
aciğer	-12661
▁İnönü	-12662
▁Commun	-12663
▁karikatür	-12664
▁uygulamaya	-12665
▁Süt	-12666
▁Boğaz	-12667
▁Tatlı	-12668
▁çıkmaya	-12669
▁kesiminde	-12670
star	-12671
▁tef	-12672
achel	-12673
▁sevk	-12674
▁Viktor	-12675
▁itiraz	-12676
▁çember	-12677
▁Teşkilatı	-12678
.(	-12679
▁Hoff	-12680
▁Heavy	-12681
▁Göster	-12682
▁sebeple	-12683
▁anlamıyla	-12684
▁şi	-12685
▁Bahr	-12686
▁Roth	-12687
▁betim	-12688
▁kurma	-12689
▁uzanır	-12690
edikleri	-12691
▁işletme	-12692
▁başlayıp	-12693
esa	-12694
▁olgu	-12695
▁Paulo	-12696
▁kimse	-12697
anların	-12698
▁Nation	-12699
▁nüfusa	-12700
▁herpetolog	-12701
▁birbirleriyle	-12702
mil	-12703
ific	-12704
▁What	-12705
▁İkili	-12706
▁patlak	-12707
▁Çankırı	-12708
▁yoğunluk	-12709
▁peygamber	-12710
öğ	-12711
▁MV	-12712
▁VIII	-12713
▁kağı	-12714
▁Water	-12715
▁Amazon	-12716
iskoposu	-12717
▁sayılır	-12718
XT	-12719
Mil	-12720
ümin	-12721
▁Boys	-12722
▁Dick	-12723
▁Poly	-12724
▁Bolşevik	-12725
▁Einstein	-12726
▁ticareti	-12727
▁ülkelerinde	-12728
set	-12729
îler	-12730
▁dah	-12731
emeği	-12732
▁Hero	-12733
▁sens	-12734
▁Senatosu	-12735
▁ısıt	-12736
▁Blood	-12737
▁plana	-12738
▁boşalt	-12739
ecekteki	-12740
▁oluşturulmuştur	-12741
▁tarihe	-12742
tico	-12743
▁Çap	-12744
▁Dave	-12745
▁Eleştirmenleri	-12746
beyi	-12747
iyal	-12748
▁şem	-12749
▁Sidney	-12750
▁durumuna	-12751
▁tanımlan	-12752
▁psikoloji	-12753
May	-12754
şif	-12755
ülüğ	-12756
▁Hels	-12757
▁Erdem	-12758
▁Stutt	-12759
▁ağacı	-12760
▁gözet	-12761
▁ribaund	-12762
▁yapıyor	-12763
▁Kültürel	-12764
dırma	-12765
rahman	-12766
▁erdir	-12767
OC	-12768
▁Erc	-12769
▁Çöl	-12770
▁(?-?	-12771
▁Hast	-12772
▁filme	-12773
▁istek	-12774
▁akarsu	-12775
▁bilimci	-12776
▁Metropol	-12777
amen	-12778
atın	-12779
▁Fame	-12780
▁Proje	-12781
▁Awards	-12782
▁girmesi	-12783
▁takımını	-12784
▁gösteriyor	-12785
▁üreticileri	-12786
Her	-12787
icz	-12788
pol	-12789
▁Isp	-12790
▁gey	-12791
▁Dalı	-12792
▁umut	-12793
▁aleyh	-12794
▁ihraç	-12795
▁Studio	-12796
▁izleyen	-12797
▁birleşik	-12798
▁komisyon	-12799
▁İskandinav	-12800
▁şirketinin	-12801
▁Ağrı	-12802
▁yavru	-12803
▁Mevcut	-12804
▁websitesi	-12805
▁geçirmiştir	-12806
▁verilebilir	-12807
ische	-12808
thers	-12809
ımını	-12810
▁İler	-12811
▁Nükleer	-12812
▁uyandır	-12813
▁başlaması	-12814
GA	-12815
▁arg	-12816
▁Dönüş	-12817
▁duydu	-12818
lamenter	-12819
▁Atlantik	-12820
▁Manastırı	-12821
HC	-12822
iny	-12823
elia	-12824
tipi	-12825
usta	-12826
▁Anal	-12827
▁Solanum	-12828
▁Research	-12829
▁savaştan	-12830
uni	-12831
▁soyut	-12832
▁özdeş	-12833
▁kurşun	-12834
▁tersine	-12835
▁hayvanların	-12836
ipzig	-12837
▁reng	-12838
▁bizzat	-12839
▁işlemleri	-12840
dişi	-12841
▁Ost	-12842
ories	-12843
ormon	-12844
iliğin	-12845
landığını	-12846
▁Bakanlar	-12847
▁Takımlar	-12848
▁iktidara	-12849
▁Türkmenistan	-12850
ımına	-12851
▁Müze	-12852
▁fizi	-12853
▁katk	-12854
League	-12855
▁Soccer	-12856
▁görmek	-12857
▁semtinde	-12858
tig	-12859
şen	-12860
okeyi	-12861
▁Jama	-12862
avyera	-12863
▁Detroit	-12864
▁amac	-12865
▁bütç	-12866
▁yeraltı	-12867
▁Şirketin	-12868
▁Ges	-12869
▁Yüc	-12870
▁Cham	-12871
▁bıçak	-12872
▁koyun	-12873
▁yumurt	-12874
▁büyüyen	-12875
▁durumun	-12876
▁hazırlan	-12877
▁maddenin	-12878
sia	-12879
▁Pri	-12880
▁Seneg	-12881
▁büyüt	-12882
▁Görüntü	-12883
▁kıyafet	-12884
ılmasında	-12885
▁referand	-12886
▁Romalılar	-12887
▁Moğolistan	-12888
emey	-12889
jyon	-12890
lines	-12891
▁Veri	-12892
eğinde	-12893
ordusu	-12894
▁vasıt	-12895
▁azından	-12896
▁kararlı	-12897
▁Tarihsel	-12898
▁hızlandır	-12899
▁Şanlıurfa	-12900
▁Abdülhamid	-12901
▁yaşamıştır	-12902
▁Mess	-12903
▁kupa	-12904
▁cadde	-12905
Maç	-12906
akt	-12907
coln	-12908
ists	-12909
kabı	-12910
yeni	-12911
▁üvey	-12912
nastik	-12913
▁Devri	-12914
▁mayın	-12915
▁zorla	-12916
▁yolunu	-12917
▁öğrenc	-12918
▁tüketim	-12919
▁topraklarının	-12920
ekk	-12921
▁Cos	-12922
▁berabere	-12923
▁kurtarmak	-12924
▁Peri	-12925
▁Ernst	-12926
▁satranç	-12927
▁sezonunu	-12928
Sa	-12929
ovi	-12930
ural	-12931
▁Aff	-12932
▁ofis	-12933
▁Prensi	-12934
▁Ramazan	-12935
▁tapınak	-12936
▁Fi	-12937
otop	-12938
▁fikrini	-12939
▁görevli	-12940
▁Vilayeti	-12941
abel	-12942
akan	-12943
irmen	-12944
▁Kazım	-12945
▁aygıt	-12946
▁sipariş	-12947
▁Yayıncılık	-12948
dor	-12949
atar	-12950
▁Kuy	-12951
öhret	-12952
▁trop	-12953
▁yeğeni	-12954
▁Til	-12955
uldak	-12956
manuel	-12957
▁imzalandı	-12958
▁edilmesine	-12959
gazi	-12960
▁açığa	-12961
▁Gümüşhane	-12962
▁Cumhuriyetçi	-12963
iji	-12964
ław	-12965
▁salın	-12966
▁finali	-12967
▁Performansı	-12968
▁geliştirildi	-12969
VA	-12970
▁mermer	-12971
▁sayılar	-12972
▁videosu	-12973
▁sekreteri	-12974
bourne	-12975
▁biten	-12976
▁Katedral	-12977
▁tarzında	-12978
▁prefektör	-12979
▁Hristiyanlar	-12980
▁şampiyonları	-12981
EE	-12982
ipe	-12983
sie	-12984
Avus	-12985
▁Ltd	-12986
▁Mav	-12987
amayı	-12988
▁Sinop	-12989
▁kurumu	-12990
▁taslakları	-12991
▁sön	-12992
ection	-12993
▁Movie	-12994
▁motif	-12995
▁ısrar	-12996
▁alıyordu	-12997
▁́	-12998
upe	-12999
yid	-13000
tric	-13001
▁Riv	-13002
▁iyice	-13003
▁sesli	-13004
▁bunlara	-13005
▁aktivist	-13006
▁haricinde	-13007
▁Mali	-13008
▁dikey	-13009
hib	-13010
▁Büy	-13011
▁Umut	-13012
▁edit	-13013
▁Friend	-13014
▁Theatre	-13015
▁Franklin	-13016
▁Dipnotlar	-13017
ako	-13018
▁egz	-13019
▁kâğıt	-13020
▁mekani	-13021
▁sürece	-13022
▁listede	-13023
▁desteğiyle	-13024
▁üyelerinden	-13025
göz	-13026
▁TC	-13027
flix	-13028
▁RNA	-13029
▁haç	-13030
▁proto	-13031
▁Library	-13032
▁ayrılık	-13033
▁Etimoloji	-13034
the	-13035
atin	-13036
▁Aman	-13037
▁öyle	-13038
▁Valen	-13039
▁şahıs	-13040
▁beklenen	-13041
.),	-13042
▁Eh	-13043
▁anarş	-13044
▁Finali	-13045
▁botanik	-13046
▁demiştir	-13047
▁hikâyesi	-13048
▁Demiryolu	-13049
▁Phoenix	-13050
▁Türkçede	-13051
▁sunmaktadır	-13052
roz	-13053
▁Jüri	-13054
▁pröm	-13055
▁Dimit	-13056
▁Şeref	-13057
olojinin	-13058
▁kuyruklu	-13059
▁yuvarlak	-13060
▁danışmanı	-13061
▁defnedildi	-13062
▁Hers	-13063
▁pomp	-13064
▁filtr	-13065
▁Üretim	-13066
▁olmasıyla	-13067
▁sorumluluk	-13068
▁muharebeleri	-13069
unca	-13070
amalı	-13071
▁Vakıf	-13072
▁Silver	-13073
▁çıplak	-13074
▁bozukluğu	-13075
kul	-13076
uhaf	-13077
▁Hikây	-13078
▁tuttu	-13079
▁etiket	-13080
▁gittiği	-13081
▁çıkarmak	-13082
▁yapılabilir	-13083
▁yönetimindeki	-13084
▁kuzeydoğusunda	-13085
-||	-13086
▁Domin	-13087
▁Yahya	-13088
▁yaralı	-13089
meyenler	-13090
▁yardımı	-13091
▁Türklerin	-13092
▁kilisenin	-13093
▁İstihbarat	-13094
▁Gan	-13095
▁nehri	-13096
▁Bildir	-13097
▁maçını	-13098
▁Horasan	-13099
▁taksonlar	-13100
▁edildiğini	-13101
▁yayınlanmış	-13102
IX	-13103
fo	-13104
▁Ecz	-13105
▁Mex	-13106
▁eti	-13107
▁konf	-13108
▁ilgisini	-13109
▁yönetimine	-13110
koşa	-13111
▁yaptılar	-13112
▁Ferdinand	-13113
▁Leo	-13114
▁metro	-13115
▁nesne	-13116
▁Justin	-13117
formation	-13118
▁grubudur	-13119
▁etkilenen	-13120
▁başbakanları	-13121
ences	-13122
öğren	-13123
▁Stra	-13124
▁amaçlayan	-13125
fl	-13126
ple	-13127
▁ani	-13128
▁Days	-13129
▁Elen	-13130
▁Kate	-13131
▁lehç	-13132
▁Baltık	-13133
▁yayını	-13134
▁basamak	-13135
▁grubunu	-13136
▁hatları	-13137
▁sahibidir	-13138
▁sıralaması	-13139
aps	-13140
bran	-13141
▁Att	-13142
▁keç	-13143
▁kin	-13144
▁sil	-13145
▁Gazze	-13146
▁Hattı	-13147
▁elinden	-13148
▁takdirde	-13149
abad	-13150
▁Riz	-13151
▁hel	-13152
▁ibn	-13153
zaman	-13154
▁Müst	-13155
▁itiraf	-13156
Amerikan	-13157
bre	-13158
----	-13159
iana	-13160
▁Etk	-13161
stone	-13162
▁temin	-13163
▁seyirci	-13164
▁şehrine	-13165
▁değişimi	-13166
ка	-13167
▁İnce	-13168
adılar	-13169
üpiter	-13170
▁olayın	-13171
▁yaptıktan	-13172
uil	-13173
▁İht	-13174
▁Term	-13175
▁hayr	-13176
▁Sekiz	-13177
düksiyon	-13178
öp	-13179
ftw	-13180
üdü	-13181
▁Seul	-13182
▁rehber	-13183
▁sıkıntı	-13184
▁haftasında	-13185
▁olabilecek	-13186
▁SO	-13187
ılama	-13188
▁Dist	-13189
▁Gıda	-13190
▁Burak	-13191
▁Hawai	-13192
▁Melik	-13193
▁önerdi	-13194
▁Göktürk	-13195
▁aşağıda	-13196
▁doğrusal	-13197
▁mimarlık	-13198
▁yaşıyordu	-13199
▁üçte	-13200
▁antrop	-13201
▁mezhep	-13202
▁oluştu	-13203
▁Lincoln	-13204
ılmak	-13205
▁Senf	-13206
▁Antarktika	-13207
AA	-13208
oji	-13209
amba	-13210
▁vali	-13211
▁haftada	-13212
▁Zonguldak	-13213
▁Wa	-13214
aguay	-13215
▁çağrı	-13216
▁açıklan	-13217
▁gösterim	-13218
▁mülkiyet	-13219
▁sürdüren	-13220
cay	-13221
oir	-13222
rot	-13223
atay	-13224
▁Çöz	-13225
▁Güler	-13226
▁puanı	-13227
▁Dinamo	-13228
▁kimyager	-13229
▁söyleyerek	-13230
▁Stein	-13231
▁bayram	-13232
▁kamyon	-13233
▁Marshall	-13234
▁ortalaması	-13235
▁zamanların	-13236
▁dağılımının	-13237
▁güneybatısında	-13238
▁iyileş	-13239
▁bitiren	-13240
▁kuşatma	-13241
▁demokras	-13242
▁yetkilileri	-13243
kaz	-13244
▁Miy	-13245
▁Enver	-13246
▁taktik	-13247
▁vizyona	-13248
▁grubunda	-13249
Hz	-13250
▁Mé	-13251
abilm	-13252
lamada	-13253
▁ilhak	-13254
▁yatay	-13255
▁Levent	-13256
▁takiben	-13257
▁Stuttgart	-13258
▁yükseklik	-13259
ozor	-13260
▁Hüc	-13261
▁Soph	-13262
ilvanya	-13263
▁ilginç	-13264
▁komplo	-13265
▁anlaştı	-13266
▁finanse	-13267
▁nadiren	-13268
▁polimer	-13269
rd	-13270
pres	-13271
▁beb	-13272
▁tems	-13273
▁çatı	-13274
▁olimp	-13275
▁Oliver	-13276
▁Mektebi	-13277
▁cihazlar	-13278
düş	-13279
dağı	-13280
ölüm	-13281
▁Haş	-13282
▁hapse	-13283
▁bırakmıştır	-13284
▁farklılıklar	-13285
Te	-13286
▁Lüt	-13287
modern	-13288
üfettiş	-13289
▁öncülük	-13290
▁rastgele	-13291
▁oluşturulmuş	-13292
ather	-13293
pazarı	-13294
▁Hindu	-13295
umandan	-13296
▁Bangla	-13297
▁adanın	-13298
▁dersler	-13299
▁belirten	-13300
▁kullanıma	-13301
▁sıkça	-13302
▁Şarkısı	-13303
hang	-13304
▁Chann	-13305
▁dedek	-13306
▁ayının	-13307
▁Bavyera	-13308
▁Sayfası	-13309
▁çocukluk	-13310
▁başlamıştı	-13311
aph	-13312
tam	-13313
▁Lid	-13314
▁cih	-13315
▁Conc	-13316
▁Gökhan	-13317
▁Gabriel	-13318
▁temelini	-13319
ihi	-13320
inki	-13321
▁çıkma	-13322
▁Lefkoşa	-13323
▁gizlice	-13324
▁İktisat	-13325
▁hücreleri	-13326
▁Geliştirme	-13327
▁desteklenen	-13328
▁belediyeleri	-13329
▁Bri	-13330
▁Nez	-13331
çekim	-13332
Adalet	-13333
larken	-13334
telekt	-13335
▁konsol	-13336
▁Singapur	-13337
▁milliyetçi	-13338
▁şarkısının	-13339
caya	-13340
üntü	-13341
▁Ian	-13342
ehenn	-13343
▁Parç	-13344
▁duyg	-13345
▁Çavuş	-13346
▁Knight	-13347
▁kemeri	-13348
▁rüzgar	-13349
▁telefonları	-13350
▁kaybetmiştir	-13351
ич	-13352
▁В	-13353
▁Atom	-13354
▁mesle	-13355
▁İslâm	-13356
▁Manuel	-13357
▁almayı	-13358
▁dayanı	-13359
▁yaptığını	-13360
ensiz	-13361
▁Aviv	-13362
▁Bour	-13363
anyası	-13364
▁Intel	-13365
▁yamaç	-13366
▁Boeing	-13367
▁solunum	-13368
▁п	-13369
▁Boks	-13370
▁Lock	-13371
hattan	-13372
▁Chang	-13373
▁Smack	-13374
▁Swift	-13375
▁Çekya	-13376
▁eserin	-13377
Down	-13378
▁Ara	-13379
iyalı	-13380
▁Faruk	-13381
▁ihtim	-13382
▁Tevfik	-13383
maktır	-13384
▁göğüs	-13385
▁Dallas	-13386
▁Reform	-13387
▁zihinsel	-13388
aksi	-13389
▁Lap	-13390
▁Morgan	-13391
▁Netflix	-13392
▁Kaymakam	-13393
yc	-13394
tij	-13395
▁CN	-13396
▁Zh	-13397
▁Akıl	-13398
▁doğduğu	-13399
▁türünde	-13400
ırt	-13401
▁adıdır	-13402
▁kimliği	-13403
▁öğrenir	-13404
▁İktisadi	-13405
▁faaliyetlerini	-13406
mu	-13407
sor	-13408
▁va	-13409
▁Sert	-13410
▁Maxim	-13411
anıyordu	-13412
▁geçmesi	-13413
▁İnsanlar	-13414
▁teknikleri	-13415
Tr	-13416
ondo	-13417
▁Eyy	-13418
▁obj	-13419
▁Maçı	-13420
▁Birinc	-13421
▁imalat	-13422
▁takvim	-13423
▁Kennedy	-13424
▁hipotez	-13425
▁okuyucu	-13426
▁donanması	-13427
LS	-13428
yth	-13429
▁Ariz	-13430
▁prim	-13431
▁taşıdı	-13432
▁konular	-13433
▁santral	-13434
▁birlikler	-13435
▁tartışmalı	-13436
▁yüzyıllarda	-13437
eşim	-13438
itat	-13439
▁Burhan	-13440
ladıkları	-13441
▁çoğunluk	-13442
▁türündeki	-13443
▁eserlerini	-13444
Dr	-13445
eve	-13446
ards	-13447
eber	-13448
▁Deli	-13449
▁Taksim	-13450
▁pahalı	-13451
▁şikayet	-13452
▁işlevi	-13453
▁işçiler	-13454
▁kurdular	-13455
cul	-13456
önet	-13457
ampton	-13458
▁Çince	-13459
▁Barbar	-13460
▁Cerrah	-13461
▁kanıtlar	-13462
▁ölümünün	-13463
▁görevlendirildi	-13464
emit	-13465
▁Rez	-13466
▁kâr	-13467
isyeni	-13468
▁hareketinin	-13469
▁CEO	-13470
▁Cher	-13471
▁Kork	-13472
▁Ürün	-13473
▁ödeme	-13474
asyonel	-13475
osaurus	-13476
▁dondur	-13477
▁kriter	-13478
▁ikincil	-13479
▁yapacak	-13480
▁Başarılı	-13481
▁derecesini	-13482
▁zorundadır	-13483
▁adlandırılmış	-13484
RC	-13485
▁Jew	-13486
▁Juv	-13487
deres	-13488
▁atöly	-13489
▁duyar	-13490
▁görme	-13491
▁türün	-13492
▁inşası	-13493
▁tazmin	-13494
▁olmaktan	-13495
▁Tob	-13496
iform	-13497
▁Inde	-13498
▁Körfez	-13499
▁hek	-13500
▁lit	-13501
▁Dragon	-13502
edeniyet	-13503
▁ihracat	-13504
▁Şehzade	-13505
esis	-13506
▁aff	-13507
▁Free	-13508
▁bayr	-13509
▁Bayern	-13510
▁kuzeydoğu	-13511
▁mitolojisinde	-13512
kh	-13513
▁AV	-13514
ifor	-13515
▁Çiç	-13516
▁Econom	-13517
▁güneye	-13518
▁puanlar	-13519
▁barındıran	-13520
▁Chem	-13521
mag	-13522
▁Belir	-13523
▁Engel	-13524
▁Özellikler	-13525
İD	-13526
Hol	-13527
▁ilgisi	-13528
▁geliyor	-13529
▁kuralları	-13530
▁yöneticileri	-13531
sev	-13532
▁Acı	-13533
leyecek	-13534
▁Fikret	-13535
▁buğday	-13536
▁Academy	-13537
▁yolunda	-13538
▁kuzeybatı	-13539
▁yüksektir	-13540
kiye	-13541
▁Zinc	-13542
▁Sports	-13543
▁moment	-13544
▁Leipzig	-13545
▁zamanki	-13546
▁etiketiyle	-13547
▁sözleşmesi	-13548
▁vatandaşları	-13549
rafi	-13550
▁kopy	-13551
▁Hatun	-13552
▁teması	-13553
▁gemiler	-13554
▁düşmüştür	-13555
▁bölümünden	-13556
asu	-13557
lid	-13558
andro	-13559
▁uyku	-13560
▁ılım	-13561
▁Başak	-13562
▁Fatma	-13563
▁üçgen	-13564
▁Julius	-13565
▁Ahit	-13566
▁kartı	-13567
▁klavy	-13568
▁Wright	-13569
▁önemini	-13570
▁EC	-13571
▁Ass	-13572
illes	-13573
ilyası	-13574
▁Woman	-13575
▁Bingöl	-13576
▁aykırı	-13577
▁ulaştır	-13578
▁rekorunu	-13579
▁belirlendi	-13580
ла	-13581
yazı	-13582
▁akışı	-13583
▁vücud	-13584
dörtgen	-13585
▁Central	-13586
▁Katliam	-13587
▁tutuklu	-13588
▁Fiziksel	-13589
▁dizisidir	-13590
ipt	-13591
▁Şef	-13592
▁döngü	-13593
▁meşru	-13594
▁klavye	-13595
▁penaltı	-13596
▁güneydoğu	-13597
▁röportajda	-13598
​​	-13599
▁Mann	-13600
▁Dizisi	-13601
aboratuvarı	-13602
▁görevlerini	-13603
но	-13604
▁Nö	-13605
anto	-13606
erto	-13607
▁Fay	-13608
▁boyn	-13609
▁tanr	-13610
▁evden	-13611
▁gündeme	-13612
▁filmlerde	-13613
▁hastalıklar	-13614
▁}	-13615
Pol	-13616
Tan	-13617
▁Cuma	-13618
▁tehdi	-13619
▁Halkın	-13620
▁enstit	-13621
▁uçağın	-13622
▁Saldırı	-13623
▁Rönesans	-13624
▁yetkililer	-13625
laç	-13626
alye	-13627
▁Cour	-13628
▁casus	-13629
▁durumunu	-13630
▁ediliyor	-13631
▁demokrasi	-13632
uit	-13633
▁Global	-13634
▁Başlıca	-13635
▁gazetecileri	-13636
He	-13637
Ulus	-13638
▁Iron	-13639
▁gidip	-13640
▁temeli	-13641
▁felaket	-13642
telektüel	-13643
▁geliyordu	-13644
ablo	-13645
tice	-13646
▁tavsiy	-13647
▁Universe	-13648
ülte	-13649
▁Syn	-13650
▁eğil	-13651
▁kron	-13652
▁Gustav	-13653
oğunlukla	-13654
▁Manhattan	-13655
▁başlatılan	-13656
▁fah	-13657
▁medres	-13658
track	-13659
▁Kill	-13660
▁Merc	-13661
elektrik	-13662
▁havayolu	-13663
py	-13664
tihat	-13665
▁izler	-13666
▁kurak	-13667
lemeler	-13668
▁taklit	-13669
▁Beyoğlu	-13670
▁Sanatçısı	-13671
Cl	-13672
iks	-13673
oux	-13674
▁me	-13675
inli	-13676
ores	-13677
▁Beg	-13678
▁Söy	-13679
▁hus	-13680
▁Brüksel	-13681
▁Channel	-13682
▁Nikolay	-13683
▁görevler	-13684
▁çalışmış	-13685
▁İbranice	-13686
▁€	-13687
ska	-13688
▁die	-13689
▁Utah	-13690
▁vakıf	-13691
▁mahkum	-13692
▁yazarın	-13693
▁Fernando	-13694
▁tamamladıktan	-13695
ия	-13696
▁Ore	-13697
▁sam	-13698
▁Ozan	-13699
▁başa	-13700
▁okulda	-13701
▁Raymond	-13702
▁duyduğu	-13703
▁kalması	-13704
▁ödülüne	-13705
▁şimdiki	-13706
▁güneybatı	-13707
cesi	-13708
less	-13709
▁Clev	-13710
▁Gary	-13711
▁Stat	-13712
▁yang	-13713
Yunanca	-13714
▁Ticari	-13715
▁Ziraat	-13716
▁lehine	-13717
▁Jüpiter	-13718
▁bırakır	-13719
▁serinin	-13720
▁kurumsal	-13721
▁başkanlığına	-13722
esto	-13723
satı	-13724
▁malzemeler	-13725
ان	-13726
egel	-13727
▁Nus	-13728
ahmet	-13729
doğum	-13730
▁Petro	-13731
▁hiyer	-13732
▁oksit	-13733
abildiği	-13734
▁yaşandı	-13735
bos	-13736
chel	-13737
▁Leb	-13738
ipedi	-13739
▁püskürt	-13740
▁Karanlık	-13741
▁Oz	-13742
ious	-13743
pson	-13744
ırda	-13745
saray	-13746
▁Lisa	-13747
▁Bahar	-13748
▁İleri	-13749
▁görüşü	-13750
▁yasası	-13751
▁ihtiyac	-13752
▁kaydedildi	-13753
▁ödüllendirildi	-13754
gang	-13755
naeus	-13756
▁kafat	-13757
▁muhafız	-13758
▁bilinmeyenler	-13759
igo	-13760
▁zo	-13761
▁Syl	-13762
şarkı	-13763
▁Know	-13764
▁Again	-13765
▁ekmek	-13766
▁kabuk	-13767
▁düzenlenmiş	-13768
Pr	-13769
Mart	-13770
side	-13771
▁Line	-13772
▁esnek	-13773
▁kuzeni	-13774
▁Western	-13775
▁Magazine	-13776
▁bağlıydı	-13777
▁Bangladeş	-13778
▁bölgesini	-13779
▁kuvvetler	-13780
▁turnuvaya	-13781
kap	-13782
oci	-13783
▁CS	-13784
▁Sex	-13785
▁Marcel	-13786
▁sayısal	-13787
▁oyununda	-13788
▁maddeleri	-13789
anna	-13790
▁lif	-13791
▁sansür	-13792
liliğini	-13793
▁binanın	-13794
▁havalim	-13795
▁aldıkları	-13796
etz	-13797
▁Bis	-13798
ındık	-13799
▁Mine	-13800
▁gran	-13801
▁Kaleci	-13802
▁birçoğu	-13803
▁çalışmalarında	-13804
lif	-13805
▁Muş	-13806
▁Leop	-13807
▁Arizona	-13808
▁bireylerin	-13809
▁Ciz	-13810
▁Çıl	-13811
▁Gizli	-13812
▁nihai	-13813
▁koltuk	-13814
▁gününde	-13815
▁restore	-13816
sub	-13817
▁HT	-13818
▁Carlo	-13819
▁vurgu	-13820
▁Yaprak	-13821
▁Göztepe	-13822
▁numaradan	-13823
mont	-13824
▁ade	-13825
▁Cruz	-13826
▁Üstün	-13827
▁yayılan	-13828
▁benimsen	-13829
▁oyuncuların	-13830
poz	-13831
▁Cé	-13832
▁Vez	-13833
▁sup	-13834
▁Lise	-13835
▁Pedro	-13836
iliğini	-13837
▁bağımlı	-13838
▁dönmüştür	-13839
▁hastanede	-13840
▁tasarımcı	-13841
▁eklenmiştir	-13842
▁vize	-13843
▁ölür	-13844
▁Ekrem	-13845
▁doğmuş	-13846
▁kapısı	-13847
▁algılan	-13848
▁işkence	-13849
▁resimleri	-13850
▁gelecekteki	-13851
▁Hi	-13852
▁Dob	-13853
▁Lok	-13854
ovich	-13855
▁boşan	-13856
▁ulaşmak	-13857
▁geçmişte	-13858
hip	-13859
▁Lep	-13860
▁SHP	-13861
▁Josh	-13862
▁Tekir	-13863
▁menaj	-13864
▁üreme	-13865
▁imkânı	-13866
▁oturum	-13867
▁Borsası	-13868
▁eşdeğer	-13869
encere	-13870
ülerek	-13871
▁Yakup	-13872
▁akımı	-13873
▁çeker	-13874
▁Gelecek	-13875
▁Otomobil	-13876
▁İşbirliği	-13877
eviç	-13878
▁Andy	-13879
▁Lucas	-13880
▁ulaşır	-13881
▁İlgili	-13882
▁şifrel	-13883
▁Johannes	-13884
▁karışımı	-13885
▁Alternatif	-13886
▁Bizanslılar	-13887
▁koleksiyonu	-13888
WA	-13889
ublic	-13890
▁ucuz	-13891
▁Trump	-13892
▁harfi	-13893
▁dergiler	-13894
▁sertifik	-13895
▁seviyede	-13896
▁engellemek	-13897
än	-13898
▁Joy	-13899
ateji	-13900
▁Lion	-13901
▁kutu	-13902
▁Sofya	-13903
▁Terak	-13904
▁Emniyet	-13905
▁sandalye	-13906
▁tarihini	-13907
▁Başkanlık	-13908
▁Kolordusu	-13909
xx	-13910
▁@	-13911
▁Ves	-13912
▁Glor	-13913
▁Europ	-13914
▁Sankt	-13915
▁havuz	-13916
▁Office	-13917
▁üretmek	-13918
▁Kırgızistan	-13919
Ey	-13920
Bur	-13921
▁Pak	-13922
memek	-13923
ostüm	-13924
acılar	-13925
▁Perry	-13926
▁Slovak	-13927
▁Bayezid	-13928
▁yıldızlar	-13929
-)	-13930
▁Fur	-13931
▁bran	-13932
▁trav	-13933
▁Aires	-13934
▁Julia	-13935
▁mutlu	-13936
▁tedbir	-13937
▁Bireysel	-13938
▁olacaktı	-13939
▁güçlerini	-13940
▁açıklanmıştır	-13941
Aş	-13942
▁Amy	-13943
▁Inv	-13944
▁Niğ	-13945
inesi	-13946
▁Gang	-13947
▁stüd	-13948
▁ilave	-13949
▁kablo	-13950
▁okula	-13951
▁buluntu	-13952
▁Paraguay	-13953
▁altyapısında	-13954
elo	-13955
▁TH	-13956
▁Week	-13957
▁kafa	-13958
▁Aster	-13959
▁Homer	-13960
▁Yurdu	-13961
▁İdaresi	-13962
▁Kıt	-13963
Osman	-13964
övalye	-13965
▁pirinç	-13966
▁Cenevre	-13967
▁Thompson	-13968
▁yaparlar	-13969
▁arrondiss	-13970
WW	-13971
▁Gas	-13972
▁meg	-13973
▁Mind	-13974
▁Rest	-13975
▁oğul	-13976
▁vary	-13977
▁tamir	-13978
▁Andrea	-13979
▁haberi	-13980
▁görüldüğü	-13981
▁kesinlikle	-13982
▁şekildedir	-13983
addin	-13984
▁Şans	-13985
latıcı	-13986
▁Speci	-13987
▁Yargıt	-13988
▁yazılır	-13989
▁Türkistan	-13990
▁başarmıştır	-13991
cz	-13992
▁Bac	-13993
▁Zürih	-13994
edilmiş	-13995
▁halter	-13996
▁çapraz	-13997
▁anlaşılmaktadır	-13998
▁Dy	-13999
ways	-14000
▁Orig	-14001
▁dilde	-14002
▁noktaları	-14003
▁çekmiştir	-14004
▁araştırmacılar	-14005
▁и	-14006
auf	-14007
aydı	-14008
edef	-14009
kyüz	-14010
▁oyu	-14011
▁Ters	-14012
▁Major	-14013
▁Çeçen	-14014
▁servet	-14015
▁yoksun	-14016
▁Isparta	-14017
▁olasılığı	-14018
▁paylaştığı	-14019
owa	-14020
▁Lot	-14021
▁dalı	-14022
▁Wayne	-14023
▁kusur	-14024
▁tahttan	-14025
▁metrajlı	-14026
▁orduları	-14027
▁grupların	-14028
▁в	-14029
evo	-14030
▁Horn	-14031
▁Shaw	-14032
▁Şair	-14033
▁Canlı	-14034
▁batır	-14035
▁domuz	-14036
▁kentsel	-14037
▁resimler	-14038
▁düzeyinde	-14039
efe	-14040
▁Tez	-14041
▁Gönül	-14042
▁odası	-14043
▁almasına	-14044
▁Özer	-14045
▁yemin	-14046
▁boyutu	-14047
▁asteroit	-14048
▁yetenekli	-14049
▁astronomik	-14050
ûn	-14051
ery	-14052
born	-14053
rome	-14054
▁Ağı	-14055
▁reg	-14056
▁tet	-14057
eytin	-14058
▁Fuat	-14059
▁Tommy	-14060
▁hikay	-14061
▁omurg	-14062
▁Sezonu	-14063
▁satıldı	-14064
▁Temsilciler	-14065
▁Afyonkarahisar	-14066
oko	-14067
▁Set	-14068
▁mekân	-14069
▁gökyüz	-14070
▁misafir	-14071
▁Kuşatması	-14072
▁seslendirdiği	-14073
Can	-14074
▁​​	-14075
bine	-14076
▁Josef	-14077
▁çekiş	-14078
ilmekte	-14079
▁Nikola	-14080
▁Parker	-14081
▁Stanley	-14082
▁Ju	-14083
atlı	-14084
▁für	-14085
▁sıralama	-14086
▁uygulanır	-14087
▁kuzeybatısında	-14088
▁ha	-14089
dale	-14090
desi	-14091
▁alak	-14092
▁yelken	-14093
▁Gürcüce	-14094
▁karşısına	-14095
▁üretilmiştir	-14096
▁kullanıcıların	-14097
Dev	-14098
utan	-14099
▁Oct	-14100
▁Year	-14101
▁sıralarda	-14102
▁yöntemler	-14103
hai	-14104
uver	-14105
ümen	-14106
▁Nad	-14107
▁ster	-14108
▁yönü	-14109
▁Touch	-14110
▁İncil	-14111
ılaştır	-14112
▁Cooper	-14113
▁Kaplan	-14114
▁turist	-14115
▁Trablus	-14116
hanesi	-14117
oromen	-14118
dükleri	-14119
▁kapital	-14120
▁romancı	-14121
▁keşfedilmiştir	-14122
▁Cit	-14123
▁dekor	-14124
▁karın	-14125
▁kırdı	-14126
▁Austin	-14127
hid	-14128
leyip	-14129
▁Hikâye	-14130
▁asistan	-14131
▁dünyayı	-14132
▁sağlanır	-14133
▁büyüklüğü	-14134
▁savunması	-14135
▁Petersburg	-14136
▁Futbolculuk	-14137
▁çıkmaktadır	-14138
▁q	-14139
git	-14140
oro	-14141
fiye	-14142
▁Jes	-14143
▁Poz	-14144
aylar	-14145
▁Mesih	-14146
▁sözlü	-14147
▁Nelson	-14148
▁Potter	-14149
▁Public	-14150
▁Yapımcı	-14151
▁askerlerin	-14152
mayla	-14153
osuna	-14154
▁Site	-14155
▁doğur	-14156
▁günah	-14157
▁kalem	-14158
▁ihanet	-14159
▁seferi	-14160
▁Augustus	-14161
▁Etiyopya	-14162
▁değiştirme	-14163
▁kullanımını	-14164
ohbet	-14165
▁geçit	-14166
▁Şeytan	-14167
▁uzaktan	-14168
▁eşliğinde	-14169
▁oluşturma	-14170
▁söylediği	-14171
▁özgürlüğü	-14172
amayacağını	-14173
▁tarihçileri	-14174
Doğ	-14175
bun	-14176
ishi	-14177
Tunes	-14178
metik	-14179
▁göze	-14180
▁Talib	-14181
lamıştı	-14182
▁Carter	-14183
▁Padişah	-14184
▁almakta	-14185
▁sayısız	-14186
▁ailesiyle	-14187
▁Kızılderili	-14188
BI	-14189
unus	-14190
▁Meb	-14191
▁zul	-14192
▁Cemil	-14193
üminyum	-14194
▁Komutan	-14195
▁klasmanı	-14196
▁çeşitleri	-14197
▁üyeliğine	-14198
get	-14199
talama	-14200
▁evlat	-14201
▁saatlik	-14202
▁Yargıtay	-14203
▁metropol	-14204
▁gereklidir	-14205
▁Yardımcılığı	-14206
▁Č	-14207
▁AT	-14208
▁iv	-14209
▁Oğlu	-14210
▁Tanım	-14211
▁boğaz	-14212
▁çikol	-14213
▁gergin	-14214
▁yaşama	-14215
▁yörünge	-14216
▁Performans	-14217
▁Television	-14218
▁önderliğinde	-14219
▁Ziy	-14220
▁Drak	-14221
rettin	-14222
▁Gerek	-14223
▁kolej	-14224
▁Cleveland	-14225
▁Yayım	-14226
▁korsan	-14227
▁madenc	-14228
▁zararlı	-14229
▁Gl	-14230
▁Fun	-14231
▁lige	-14232
▁Çıkış	-14233
▁davası	-14234
▁düzgün	-14235
▁ibadet	-14236
▁Telekom	-14237
ildiğinde	-14238
▁kahramanı	-14239
▁tesisleri	-14240
▁federasyon	-14241
Den	-14242
maç	-14243
oca	-14244
▁metni	-14245
▁almıştı	-14246
▁işareti	-14247
▁günlerde	-14248
▁Dayanışma	-14249
▁çıkarılmıştır	-14250
▁kaldırılmıştır	-14251
abilim	-14252
cekler	-14253
▁Bizanslı	-14254
▁kişilere	-14255
▁personeli	-14256
▁verdikleri	-14257
▁bombardıman	-14258
▁fl	-14259
▁Cart	-14260
▁belge	-14261
▁ligin	-14262
▁endişe	-14263
lamasına	-14264
▁kaydedilen	-14265
▁özelliğini	-14266
sir	-14267
acher	-14268
▁Nord	-14269
▁tura	-14270
▁diktatör	-14271
▁Princeton	-14272
▁altyapısı	-14273
▁devletleri	-14274
▁saldırılar	-14275
▁Ple	-14276
teşem	-14277
▁açısı	-14278
▁refah	-14279
mesidir	-14280
▁isminin	-14281
▁sayılan	-14282
▁Sadrazam	-14283
▁Konferans	-14284
▁Zar	-14285
▁muz	-14286
isten	-14287
yaman	-14288
▁Baas	-14289
esifik	-14290
çıları	-14291
ileştir	-14292
▁edilmişti	-14293
▁niteliğinde	-14294
▁?	-14295
▁SV	-14296
▁Raf	-14297
▁Anat	-14298
▁ağabeyi	-14299
▁Devrimci	-14300
▁krallığı	-14301
▁gözaltına	-14302
▁ülkesinde	-14303
ouri	-14304
▁Pra	-14305
▁nic	-14306
▁Hamdi	-14307
mingham	-14308
▁Mektup	-14309
▁kalkış	-14310
▁Türbesi	-14311
▁odaklan	-14312
▁saltanat	-14313
▁devletinin	-14314
▁à	-14315
pin	-14316
▁Tul	-14317
melidir	-14318
▁tahsis	-14319
▁Marksist	-14320
▁hücreler	-14321
▁kenarında	-14322
▁ayrılmaktadır	-14323
ial	-14324
kuş	-14325
stal	-14326
icisi	-14327
▁düet	-14328
▁türk	-14329
▁Çakır	-14330
malarında	-14331
▁Jandarma	-14332
▁işlevsel	-14333
Be	-14334
▁GN	-14335
▁Lil	-14336
▁katil	-14337
▁Prince	-14338
▁doları	-14339
▁yayına	-14340
▁öyküsü	-14341
▁albümünden	-14342
▁Antalyaspor	-14343
lard	-14344
▁Fed	-14345
▁çim	-14346
ihanna	-14347
▁balığı	-14348
amayacak	-14349
▁engelli	-14350
▁günleri	-14351
▁gazeteciler	-14352
▁öğrencilerin	-14353
▁Ral	-14354
▁Ağaç	-14355
▁köyüne	-14356
▁Türkçesi	-14357
▁azaltmak	-14358
▁sağladığı	-14359
ər	-14360
aziz	-14361
lack	-14362
▁Lem	-14363
▁hitap	-14364
▁çıkarma	-14365
▁turnuvada	-14366
ija	-14367
▁McK	-14368
▁Düny	-14369
▁Mitch	-14370
▁hiper	-14371
▁Kayser	-14372
▁Ulaşım	-14373
▁Herbert	-14374
▁sanatsal	-14375
▁galaksiler	-14376
Seç	-14377
gate	-14378
▁Fol	-14379
lüler	-14380
▁burs	-14381
lético	-14382
▁Liste	-14383
▁Yıllık	-14384
▁mantar	-14385
▁Ankarag	-14386
▁gelecekte	-14387
RI	-14388
▁Zo	-14389
▁Sek	-14390
▁Clin	-14391
▁Pens	-14392
▁Sean	-14393
▁comp	-14394
▁Sedat	-14395
▁giyim	-14396
▁sunan	-14397
▁yaşay	-14398
▁otomob	-14399
▁Hanlığı	-14400
▁muhabir	-14401
▁teklisi	-14402
▁istihdam	-14403
▁çekimleri	-14404
▁Koleksiyon	-14405
izz	-14406
ache	-14407
▁Geb	-14408
▁Köş	-14409
▁Psy	-14410
▁benzet	-14411
▁üstlen	-14412
▁Makedon	-14413
▁Studies	-14414
▁Tekirdağ	-14415
ms	-14416
hin	-14417
▁kümesi	-14418
ildiğini	-14419
▁koşullar	-14420
wo	-14421
▁bi	-14422
▁Afro	-14423
▁anki	-14424
amadan	-14425
▁Barry	-14426
▁kurgu	-14427
ılmadan	-14428
▁Santos	-14429
▁rektör	-14430
▁sancak	-14431
▁Abdurrahman	-14432
▁ilişkilidir	-14433
▁kumaş	-14434
▁satılan	-14435
▁konsantr	-14436
▁Ansiklopedisi	-14437
▁yı	-14438
rano	-14439
▁Claude	-14440
▁alındığında	-14441
ss	-14442
liyö	-14443
▁Dut	-14444
▁hiz	-14445
▁Cass	-14446
▁oynar	-14447
▁Buenos	-14448
▁Erivan	-14449
▁tutmak	-14450
▁temsilc	-14451
▁yolculu	-14452
king	-14453
tegral	-14454
▁Warri	-14455
▁çekil	-14456
▁Altında	-14457
▁Georges	-14458
▁kaldılar	-14459
ST	-14460
▁Ž	-14461
İng	-14462
erie	-14463
leşik	-14464
mamak	-14465
▁Head	-14466
▁atanan	-14467
▁işlemci	-14468
▁kurarak	-14469
▁sağlıklı	-14470
▁üretilmiş	-14471
ünik	-14472
▁Koş	-14473
▁içe	-14474
▁pal	-14475
lekli	-14476
▁Bert	-14477
▁Volkan	-14478
▁Maurice	-14479
▁bölümüne	-14480
▁nedenlerden	-14481
▁yin	-14482
ukuki	-14483
▁Leyla	-14484
▁türünün	-14485
▁sayısına	-14486
▁noktasına	-14487
uku	-14488
▁Ax	-14489
elop	-14490
▁kemi	-14491
▁Guide	-14492
UN	-14493
uve	-14494
aran	-14495
▁asil	-14496
yanlar	-14497
▁Spart	-14498
▁mühim	-14499
▁Stadyum	-14500
▁gruplardan	-14501
▁malzemeleri	-14502
We	-14503
iper	-14504
tısı	-14505
▁Cad	-14506
▁Pod	-14507
abanı	-14508
▁Terc	-14509
▁hacmi	-14510
▁Harold	-14511
▁familyası	-14512
▁yayınları	-14513
allı	-14514
iger	-14515
▁Kron	-14516
▁trom	-14517
▁infaz	-14518
▁kayak	-14519
▁People	-14520
▁dışişleri	-14521
▁Ankaragücü	-14522
▁toplantılar	-14523
bug	-14524
▁çür	-14525
ührer	-14526
▁Dean	-14527
▁Empire	-14528
▁Zagreb	-14529
▁Sultanı	-14530
▁kitabının	-14531
▁ülkelerden	-14532
şa	-14533
iğit	-14534
▁Buh	-14535
▁golü	-14536
Ankara	-14537
unları	-14538
▁Guang	-14539
▁İsyanı	-14540
▁Broadway	-14541
▁kişiliği	-14542
▁kültürünün	-14543
rep	-14544
ibar	-14545
seud	-14546
antik	-14547
▁Elli	-14548
▁soyu	-14549
▁Oyunu	-14550
▁riski	-14551
▁subayı	-14552
▁muhafazakâr	-14553
▁içerisindeki	-14554
dî	-14555
▁Teda	-14556
▁ardı	-14557
▁Şükr	-14558
▁hesab	-14559
▁manga	-14560
▁Budist	-14561
▁seçilir	-14562
ilmesinde	-14563
▁benzerlik	-14564
▁tanımlayan	-14565
▁seslendirilen	-14566
Ağ	-14567
Sch	-14568
▁Fos	-14569
▁Alab	-14570
▁Bruno	-14571
▁Divan	-14572
▁Titan	-14573
▁bilen	-14574
▁daire	-14575
▁amcası	-14576
▁aracın	-14577
▁Karabük	-14578
▁gücünün	-14579
▁salgını	-14580
▁Bölümler	-14581
▁Jennifer	-14582
▁benzersiz	-14583
▁sıcaklığı	-14584
lerindendir	-14585
▁birleşerek	-14586
▁çarptırıldı	-14587
rif	-14588
wer	-14589
inda	-14590
lüsü	-14591
▁www	-14592
dikçe	-14593
▁Dram	-14594
▁aşağ	-14595
alarca	-14596
ampire	-14597
▁Nehir	-14598
▁Binası	-14599
▁Serisi	-14600
▁sevdiği	-14601
▁sürgüne	-14602
▁Brooklyn	-14603
▁destekli	-14604
▁terminal	-14605
▁endüstrisi	-14606
▁Başbakanlık	-14607
▁AM	-14608
ennet	-14609
▁peynir	-14610
▁düşmesi	-14611
▁fazlası	-14612
▁sün	-14613
▁Human	-14614
▁Franco	-14615
▁Grande	-14616
▁yaşıyor	-14617
ebilirler	-14618
▁cisimler	-14619
▁giderken	-14620
aht	-14621
avir	-14622
▁Lac	-14623
▁Rüş	-14624
ierra	-14625
▁Kret	-14626
▁Medres	-14627
▁pilotu	-14628
▁örtüsü	-14629
▁bulunduğunu	-14630
oga	-14631
uğu	-14632
won	-14633
üks	-14634
▁Düğ	-14635
▁yıla	-14636
▁Şişli	-14637
▁halefi	-14638
▁yollar	-14639
▁ışığın	-14640
:;	-14641
trik	-14642
▁Suz	-14643
ömlek	-14644
▁şiiri	-14645
▁Spring	-14646
▁Atlético	-14647
▁kurulduğu	-14648
▁kuzeyindeki	-14649
▁şekillendir	-14650
▁değiştirilmiş	-14651
▁değişiklikleri	-14652
dez	-14653
dis	-14654
eno	-14655
▁Ll	-14656
▁Coş	-14657
üsyon	-14658
▁yansım	-14659
▁Berkeley	-14660
▁Robinson	-14661
▁çevirisi	-14662
ederasyonu	-14663
bie	-14664
iman	-14665
▁maaş	-14666
▁komit	-14667
▁seramik	-14668
▁öğrenme	-14669
▁ilçeleri	-14670
▁ülkelere	-14671
▁hareketin	-14672
▁erkeklerin	-14673
▁entelektüel	-14674
▁>	-14675
▁Б	-14676
▁Bö	-14677
▁Cob	-14678
▁Raj	-14679
▁Tod	-14680
▁Gian	-14681
▁Beyler	-14682
izasyonu	-14683
▁binalar	-14684
▁bununla	-14685
▁programlar	-14686
▁kurucularından	-14687
▁Pow	-14688
▁Khan	-14689
▁Rein	-14690
▁Sait	-14691
▁Arkeoloji	-14692
▁bulunmakta	-14693
eçh	-14694
▁Vef	-14695
▁kurut	-14696
▁devamlı	-14697
▁elemeleri	-14698
▁karakterdir	-14699
John	-14700
▁Dad	-14701
▁müf	-14702
▁Feth	-14703
▁Baron	-14704
▁ışığı	-14705
▁bölüme	-14706
▁tablet	-14707
▁Theodor	-14708
iyorlardı	-14709
▁Demirtaş	-14710
▁mangaları	-14711
▁maçlarını	-14712
▁yürütülen	-14713
ли	-14714
erald	-14715
layer	-14716
▁Ther	-14717
ramvay	-14718
▁fakir	-14719
▁gerekse	-14720
▁onuruna	-14721
Fransızca	-14722
▁katılarak	-14723
▁süresince	-14724
▁özelliklere	-14725
▁Was	-14726
▁Yor	-14727
hemat	-14728
▁kırk	-14729
▁Tekin	-14730
▁Hermann	-14731
▁emriyle	-14732
▁geminin	-14733
▁ressamlar	-14734
No	-14735
alth	-14736
▁Giro	-14737
▁çöküş	-14738
▁Junior	-14739
▁düşmanı	-14740
▁yarıştı	-14741
▁Airlines	-14742
dım	-14743
▁dür	-14744
▁Sosy	-14745
▁yapısını	-14746
▁şekilleri	-14747
Tem	-14748
émon	-14749
▁Age	-14750
▁salgın	-14751
▁sultan	-14752
odinamik	-14753
▁kızları	-14754
▁İlkokulu	-14755
▁tarihçisi	-14756
▁Birmingham	-14757
kıya	-14758
▁Pont	-14759
▁atar	-14760
▁söyl	-14761
▁Kağan	-14762
▁Edinburgh	-14763
▁IC	-14764
abol	-14765
ites	-14766
oyol	-14767
▁sanc	-14768
▁Melek	-14769
▁Kardeşler	-14770
▁voleybolcuları	-14771
opp	-14772
wald	-14773
▁Jak	-14774
▁fas	-14775
▁naz	-14776
▁Ergen	-14777
▁Challen	-14778
▁göründü	-14779
▁Kürdistan	-14780
▁kaynaklara	-14781
roy	-14782
alia	-14783
enth	-14784
ives	-14785
salar	-14786
▁Yunanlar	-14787
▁belirlenmesi	-14788
ütev	-14789
▁Kep	-14790
ergâh	-14791
▁Inst	-14792
▁çaba	-14793
▁yarıç	-14794
▁Halife	-14795
▁iklimi	-14796
lığındaki	-14797
▁Menderes	-14798
▁volkanik	-14799
▁başlatıldı	-14800
▁evlenmiştir	-14801
▁İskenderiye	-14802
otek	-14803
▁Oluş	-14804
▁köye	-14805
▁yarışan	-14806
▁anlayışı	-14807
▁şöyledir	-14808
▁başarısını	-14809
▁senaristler	-14810
▁temsilciler	-14811
ет	-14812
Peter	-14813
andal	-14814
takım	-14815
▁artar	-14816
▁İzmit	-14817
▁Philos	-14818
▁buradaki	-14819
▁kadınlara	-14820
▁kararıyla	-14821
▁gerektiren	-14822
▁sahiptirler	-14823
▁mutfağındaki	-14824
BO	-14825
▁Üz	-14826
erty	-14827
▁nehr	-14828
▁aranj	-14829
▁kuşak	-14830
▁çoğunun	-14831
▁cihazları	-14832
▁soruşturma	-14833
▁başkanlığında	-14834
▁CP	-14835
olon	-14836
▁Gey	-14837
▁teb	-14838
▁ring	-14839
asyona	-14840
▁Sıcak	-14841
▁evcil	-14842
▁kesiş	-14843
asyonun	-14844
▁dönerek	-14845
▁repesaj	-14846
▁tanınmıştır	-14847
oney	-14848
▁ABC	-14849
▁Paz	-14850
▁Gemi	-14851
▁Marco	-14852
▁bomba	-14853
▁ettirdi	-14854
▁kitabını	-14855
▁çıkarmıştır	-14856
▁Müslümanların	-14857
üya	-14858
edon	-14859
▁Hus	-14860
orgun	-14861
▁Alay	-14862
istanı	-14863
▁türev	-14864
▁Catherine	-14865
▁mücadelesi	-14866
▁yayınlamıştır	-14867
GS	-14868
emann	-14869
▁Ayhan	-14870
▁Songs	-14871
▁Yağmur	-14872
▁düzeyi	-14873
▁hissed	-14874
▁patent	-14875
▁hasılat	-14876
▁herkesin	-14877
▁öğretmenlik	-14878
▁politikaları	-14879
şet	-14880
▁Cec	-14881
kanın	-14882
heimer	-14883
▁dağın	-14884
▁izole	-14885
▁mısır	-14886
▁rapçi	-14887
▁seçil	-14888
▁anlatılır	-14889
▁hareketli	-14890
▁yaygınlaş	-14891
ature	-14892
posta	-14893
▁Baskı	-14894
▁Beach	-14895
▁itibar	-14896
▁oluşmuş	-14897
▁tarafta	-14898
▁Açıklama	-14899
sah	-14900
rasya	-14901
▁Maya	-14902
▁Walt	-14903
▁Herak	-14904
▁adamın	-14905
▁kazası	-14906
▁okulun	-14907
▁Vikipedi	-14908
▁bireyler	-14909
▁kelimesinden	-14910
cc	-14911
sav	-14912
▁Caz	-14913
▁Ust	-14914
▁Şeker	-14915
▁yıldön	-14916
▁bölgelere	-14917
▁sunulmuştur	-14918
Off	-14919
▁İy	-14920
umuz	-14921
▁Ayn	-14922
▁Cih	-14923
▁ked	-14924
▁Wang	-14925
▁Patrik	-14926
▁garniz	-14927
▁Okyanus	-14928
▁eşitlik	-14929
▁sevgilisi	-14930
Co	-14931
GP	-14932
▁Sho	-14933
▁Seni	-14934
▁Viking	-14935
▁çiftlik	-14936
kir	-14937
ohen	-14938
entus	-14939
lando	-14940
▁Phone	-14941
▁artırmak	-14942
▁olimpiyat	-14943
▁Iv	-14944
▁SD	-14945
▁uyan	-14946
▁Adını	-14947
▁Mirza	-14948
▁büyüktür	-14949
▁teşkilat	-14950
▁anlaşmaya	-14951
üvar	-14952
▁enj	-14953
▁zem	-14954
alist	-14955
trali	-14956
ussia	-14957
▁Emma	-14958
▁Rost	-14959
lahoma	-14960
▁Santi	-14961
▁fazlas	-14962
▁Coğrafi	-14963
▁dikdörtgen	-14964
▁uyarlanmış	-14965
▁kullanılmak	-14966
Af	-14967
tük	-14968
leyiş	-14969
▁Sung	-14970
▁blog	-14971
▁Danny	-14972
▁Kuveyt	-14973
▁Medine	-14974
▁Tugayı	-14975
▁Terakki	-14976
▁sahnede	-14977
▁yakalandı	-14978
▁Çalışmalar	-14979
▁Emirlikleri	-14980
▁rot	-14981
▁düğün	-14982
▁efekt	-14983
▁Georgi	-14984
▁gecesi	-14985
GB	-14986
kot	-14987
▁Edu	-14988
▁vahşi	-14989
▁Graham	-14990
▁anlaşıl	-14991
▁dönüşür	-14992
▁finalist	-14993
▁Evan	-14994
▁Tarık	-14995
▁duran	-14996
▁İncel	-14997
▁memuru	-14998
▁karakteristik	-14999
fon	-15000
▁Buc	-15001
▁lik	-15002
gören	-15003
▁Oktay	-15004
▁Helsinki	-15005
▁eleştiri	-15006
▁yüzyıllar	-15007
▁onurlandır	-15008
▁Dj	-15009
book	-15010
lers	-15011
more	-15012
▁Gom	-15013
▁Sty	-15014
▁Esen	-15015
▁Piet	-15016
▁atık	-15017
▁Geçici	-15018
▁Lakers	-15019
▁doçent	-15020
▁soykır	-15021
▁psikiyat	-15022
▁tasarlandı	-15023
AD	-15024
ος	-15025
Mer	-15026
aftiz	-15027
▁denge	-15028
▁kaçan	-15029
▁varol	-15030
▁Diplom	-15031
▁tescil	-15032
ladığını	-15033
▁kullanımına	-15034
▁Sag	-15035
▁Alem	-15036
akende	-15037
▁Osaka	-15038
▁nüfuz	-15039
▁tahıl	-15040
▁kapatıldı	-15041
▁belirlenmiş	-15042
▁komutasında	-15043
▁MB	-15044
▁Kov	-15045
dıran	-15046
enhag	-15047
erali	-15048
▁Clem	-15049
▁dist	-15050
▁Texas	-15051
▁günün	-15052
▁tutuldu	-15053
▁olaylara	-15054
▁yönetiminin	-15055
▁organizasyonu	-15056
lana	-15057
▁Alli	-15058
▁Ring	-15059
çekimi	-15060
▁Beste	-15061
▁kuzeye	-15062
▁Aksaray	-15063
iliğinden	-15064
▁ötesinde	-15065
▁doktorasını	-15066
lû	-15067
zak	-15068
▁Pom	-15069
▁Ptol	-15070
▁yalı	-15071
▁patron	-15072
▁Demirel	-15073
▁Brothers	-15074
▁görüntülediği	-15075
Ber	-15076
fil	-15077
âzım	-15078
▁Nok	-15079
▁ven	-15080
▁lenf	-15081
[...]
